[PAD]	0
[BOS]	0
[EOS]	0
[UNK]	0
▁	-3.42417
▁내	-4.39784
▁도	-4.73957
▁안	-4.8145
▁는	-4.87182
▁말	-4.89787
▁은	-4.97543
▁거	-5.04546
고	-5.12831
▁한	-5.1901
도	-5.21933
요	-5.22929
▁못	-5.23991
▁수	-5.24322
▁다	-5.24535
▁해	-5.24901
▁돈	-5.30103
서	-5.31088
는	-5.3126
▁요	-5.35503
▁뭐	-5.36924
지	-5.38294
게	-5.39241
▁니	-5.49284
▁만	-5.4944
▁고	-5.53891
▁할	-5.55529
▁진짜	-5.6187
기	-5.62764
▁죄송합니다	-5.6279
▁잘	-5.63506
▁지금	-5.65964
가	-5.72284
면	-5.74411
▁하고	-5.77475
▁지	-5.77983
▁한테	-5.79132
▁이	-5.79738
▁사람	-5.81195
▁이야	-5.81196
▁하는	-5.81541
장	-5.83301
▁적	-5.84418
▁님	-5.86087
▁알	-5.8716
거	-5.9232
▁인	-5.94003
▁더	-5.95885
▁그냥	-5.98465
나	-5.99804
▁게	-6.00473
일	-6.01083
▁그	-6.01506
한	-6.02319
▁제발	-6.1101
▁있습니다	-6.14005
▁기	-6.15986
로	-6.18537
▁오늘	-6.19546
문	-6.20296
인	-6.20346
데	-6.21728
▁대	-6.22197
리	-6.22325
▁애	-6.22717
번	-6.23252
정	-6.25201
▁생각	-6.2589
해	-6.27806
▁그렇게	-6.28388
▁주	-6.28777
원	-6.29468
만	-6.29562
▁집	-6.30841
▁상	-6.32365
이	-6.32825
▁돼	-6.34622
▁입니다	-6.35493
니까	-6.35837
▁전	-6.36014
자	-6.36445
▁서	-6.37896
▁너무	-6.39556
다	-6.39768
▁랑	-6.39901
히	-6.41022
▁제	-6.41312
▁하면	-6.41328
▁그런	-6.42919
▁줄	-6.44224
▁새끼	-6.4529
▁에	-6.46162
어	-6.46559
▁씨	-6.472
▁부	-6.47264
▁없어	-6.48116
며	-6.48231
▁사	-6.48598
▁정말	-6.5022
사	-6.50443
▁마	-6.52831
분	-6.52849
네	-6.52893
▁아니야	-6.53121
▁빨리	-6.54904
▁시	-6.55033
▁때	-6.55774
▁친구	-6.55892
▁면	-6.56193
▁있어	-6.57012
냐	-6.58856
▁회사	-6.58937
▁이렇게	-6.59698
▁있는	-6.60536
▁아	-6.62387
니	-6.62406
▁하지	-6.63061
수	-6.63784
▁하	-6.6729
상	-6.69175
▁그게	-6.69826
▁그건	-6.70274
▁선	-6.70416
▁인데	-6.71866
만원	-6.72147
시	-6.72285
▁넌	-6.72461
야	-6.74332
▁대리	-6.74397
신	-6.7442
▁나도	-6.74421
▁처	-6.75156
거야	-6.75268
▁가	-6.75814
▁엄마	-6.76149
▁난	-6.76702
우	-6.77559
라	-6.7872
▁해서	-6.79961
▁김	-6.80721
▁라	-6.81525
▁뭘	-6.82362
▁보	-6.82384
▁일이	-6.82392
▁이제	-6.8297
속	-6.86616
▁근	-6.86715
는데	-6.86734
▁합니다	-6.8735
▁걸	-6.87577
스	-6.87642
드	-6.88805
▁눈	-6.89096
▁앞	-6.89654
▁나	-6.89655
방	-6.89713
▁다시	-6.90067
▁소리	-6.90113
트	-6.90115
▁위	-6.91369
▁차	-6.92639
▁어	-6.94156
▁같은	-6.94201
▁라고	-6.95632
▁살	-6.96738
래	-6.98153
▁누	-6.98309
황	-6.98365
▁n	-6.98638
부	-6.98676
치	-6.99191
성	-6.99391
세요	-7.00034
▁신고	-7.0008
▁말씀	-7.00733
▁공	-7.00856
력	-7.01062
▁이나	-7.01903
까	-7.02101
것	-7.03127
생	-7.03899
▁동	-7.04009
대로	-7.04383
님	-7.05261
다고	-7.05424
▁하겠습니다	-7.05875
당	-7.06153
씨	-7.0636
▁좋은	-7.06626
▁자네	-7.06881
▁없어요	-7.07203
▁보고	-7.07656
▁건	-7.08162
▁확	-7.08529
▁경	-7.09483
▁계	-7.09635
건	-7.0988
마	-7.09963
▁없습니다	-7.10145
▁분	-7.10146
▁아닙니다	-7.1041
▁니까	-7.10926
저	-7.11131
▁미안해	-7.1124
▁날	-7.11403
▁입	-7.11567
년	-7.11598
▁개	-7.11797
죠	-7.11896
잖아	-7.12224
▁뭔	-7.12308
라도	-7.14136
▁내놔	-7.14986
▁얼	-7.15168
▁이라	-7.1535
▁정보	-7.15525
은	-7.16065
▁했어	-7.16074
▁가지	-7.16493
▁신	-7.16952
구	-7.17511
▁중	-7.17911
금	-7.18696
▁원	-7.19099
▁알겠습니다	-7.19572
▁약	-7.19748
▁저	-7.19879
▁비	-7.19898
제	-7.20045
체	-7.20234
▁죽여	-7.20346
물	-7.20895
비	-7.20968
굴	-7.21028
▁남자	-7.21233
▁문제	-7.21436
▁줘	-7.21598
▁발	-7.22474
▁남	-7.22998
▁많이	-7.23456
▁죽	-7.25035
▁세	-7.25248
▁일	-7.25301
▁아직	-7.2591
▁노	-7.25999
▁형	-7.26518
▁해야	-7.26837
의	-7.26881
▁가족	-7.26929
▁직	-7.27941
▁말고	-7.28121
▁감	-7.28441
▁아무	-7.28717
▁아니라	-7.28736
▁손	-7.29049
대	-7.2927
▁싫어	-7.29369
화	-7.29592
▁부모	-7.30394
▁하기	-7.30433
말	-7.30437
▁옷	-7.31289
▁조	-7.31312
▁목	-7.32726
▁딸	-7.3284
실	-7.32895
▁없는	-7.33964
▁된	-7.34066
소	-7.34186
차	-7.35717
▁얘	-7.35755
▁장난	-7.35876
▁달	-7.36275
공	-7.36706
▁보다	-7.3672
용	-7.36971
▁부탁	-7.37174
▁번	-7.37204
▁밖에	-7.37333
▁했는데	-7.37562
근	-7.37677
▁하는데	-7.37846
▁아니고	-7.3788
▁반	-7.39026
단	-7.3967
회	-7.39869
▁그만	-7.39908
건데	-7.40025
▁모	-7.40029
위	-7.4013
식	-7.40152
▁따	-7.4028
중	-7.40315
▁얘기	-7.40477
▁연	-7.40695
▁대한	-7.40712
▁팀	-7.4083
▁통	-7.40843
▁이랑	-7.41174
작	-7.41473
▁미	-7.42026
▁매	-7.42076
▁정도	-7.42114
▁이건	-7.42256
동	-7.42397
▁구	-7.42569
▁과장	-7.42694
▁성	-7.43029
▁에서	-7.43397
즘	-7.43402
▁알겠어	-7.43924
▁어디	-7.44259
▁정	-7.44273
▁답	-7.447
▁선생님	-7.44728
▁놈	-7.44909
▁사용	-7.45719
▁정신	-7.45858
▁하여	-7.45902
▁거야	-7.46131
▁물	-7.46342
▁될	-7.46871
▁1	-7.47207
▁같아	-7.47261
▁꼭	-7.48059
▁식	-7.48235
▁들어	-7.48342
전	-7.48753
▁죠	-7.49026
▁같습니다	-7.4911
진	-7.49828
▁자	-7.49933
음	-7.50011
▁여자	-7.50474
▁머리	-7.50644
▁두	-7.50835
으면	-7.50979
▁박	-7.51089
주	-7.51799
자기	-7.52624
아	-7.53457
▁고객	-7.53538
▁에요	-7.53578
▁갑	-7.53819
I	-7.53891
안	-7.53968
▁데	-7.53985
하게	-7.54286
▁A	-7.54699
▁경찰	-7.54883
▁여	-7.54894
▁환	-7.55065
▁마음	-7.55077
재	-7.5524
▁칼	-7.55387
▁없는데	-7.55491
하	-7.56161
친구	-7.56271
▁학교	-7.56668
▁자꾸	-7.56785
▁배	-7.57311
▁아니	-7.57685
▁이지	-7.57705
▁휴	-7.57944
▁업무	-7.58247
든	-7.58261
▁가서	-7.58278
▁그만해	-7.58844
▁래	-7.59881
▁커피	-7.60302
▁냐	-7.60462
▁준비	-7.60706
▁존	-7.60738
▁3	-7.61045
▁쳐	-7.61064
점	-7.61084
▁바	-7.6173
▁밥	-7.61743
▁손님	-7.61812
급	-7.62231
▁아주	-7.62232
▁학	-7.62249
▁있지	-7.62781
▁달라	-7.62802
▁미안	-7.63503
계	-7.63636
불	-7.63717
질	-7.64205
류	-7.64311
▁죄송해요	-7.64316
▁오	-7.64401
라고	-7.65179
▁없어서	-7.65212
▁몸	-7.65408
▁일반	-7.65817
▁있을	-7.65823
변	-7.66006
▁명	-7.66007
▁마세요	-7.661
▁오빠	-7.66815
▁되	-7.6686
발	-7.67025
▁몰라	-7.67059
습니다	-7.67647
방법	-7.67718
긴	-7.67849
▁해봐	-7.67872
▁우	-7.68112
날	-7.68152
▁죽어	-7.68169
▁후	-7.68381
▁되는	-7.68435
간	-7.68807
▁하네	-7.68846
▁장	-7.68956
▁2	-7.697
▁5	-7.70074
▁좋습니다	-7.70181
▁살려주세요	-7.707
▁아들	-7.7073
▁용	-7.71112
업	-7.71153
▁소	-7.71384
▁사랑	-7.71435
▁파	-7.71605
▁서로	-7.71624
▁이고	-7.71632
도록	-7.71862
▁돼요	-7.71967
▁불	-7.72261
냄새	-7.72293
▁있으	-7.72633
▁큰	-7.72693
료	-7.72767
▁벌	-7.73003
▁잘못	-7.73059
세	-7.7324
▁알아	-7.73391
▁하냐	-7.73548
택	-7.74038
▁정확	-7.74158
달	-7.74277
▁진	-7.74668
▁싶어	-7.74761
▁아빠	-7.7511
▁지능	-7.75166
▁됩니다	-7.75851
▁카	-7.7598
▁거지	-7.76181
▁있어서	-7.76706
줄	-7.76934
▁있	-7.7705
▁예	-7.77443
바로	-7.77747
하라	-7.77795
결	-7.77825
▁간	-7.7802
좀	-7.78098
▁아니요	-7.78162
움	-7.78417
피	-7.78595
▁그걸	-7.79363
▁금	-7.79366
▁사진	-7.79632
감	-7.7976
배	-7.79875
▁주세요	-7.80168
격	-7.80199
▁자식	-7.80529
러	-7.81117
▁있나	-7.81281
▁민	-7.81406
적	-7.81521
▁나오	-7.81698
▁연락	-7.82217
▁먼	-7.82312
▁10	-7.82334
▁있어요	-7.82766
▁피	-7.83417
▁아냐	-7.83658
▁있는데	-7.84194
▁똑	-7.84523
관	-7.84727
▁건가	-7.8474
▁돼지	-7.84762
는거야	-7.84769
할	-7.84802
통	-7.8503
▁인공	-7.85234
을	-7.85317
▁본	-7.85364
▁하세요	-7.85638
산	-7.85743
럼	-7.85917
국	-7.8599
▁강	-7.86031
▁빌려	-7.86049
▁가요	-7.86128
▁드릴	-7.86332
처	-7.86671
▁유	-7.86686
▁병	-7.86982
▁이라고	-7.87226
▁방	-7.87442
▁든	-7.8755
▁이해	-7.88149
▁보내	-7.8832
▁작	-7.88667
▁수도	-7.88672
▁없	-7.89012
유	-7.89049
▁맞아	-7.89091
접	-7.8917
▁사과	-7.89317
▁가만	-7.89467
태	-7.89484
▁무	-7.89734
▁먹고	-7.89803
▁현	-7.89923
▁잖아	-7.90375
▁엔	-7.90712
▁리	-7.91007
▁이유	-7.91084
▁다양	-7.91134
▁재	-7.91276
▁하시는	-7.91656
▁해야지	-7.91751
▁이미	-7.9189
▁실	-7.91895
▁개인	-7.92427
약	-7.92793
▁새	-7.92809
▁해줘	-7.92877
를	-7.92935
터	-7.93481
▁열	-7.9362
▁해주세요	-7.93856
▁했습니다	-7.94169
▁볼	-7.94333
선	-7.94396
▁뭐라고	-7.94454
▁퇴	-7.94533
▁싫으면	-7.94693
미	-7.9476
보	-7.95118
▁많은	-7.95368
▁아닌데	-7.95959
▁치	-7.96102
▁곳	-7.96671
▁단	-7.96726
▁사이	-7.96862
▁질	-7.97088
잖아요	-7.97186
▁갈	-7.97232
▁생활	-7.97429
▁거짓말	-7.97495
폰	-7.97565
▁취	-7.97743
▁짓	-7.98001
▁머	-7.98033
▁장님	-7.98055
▁하는거야	-7.98253
▁같은데	-7.98272
쩔	-7.98296
▁이에요	-7.98436
▁맨	-7.9844
▁전화	-8.00087
▁하는거	-8.00231
▁결혼	-8.00351
▁하게	-8.00545
머니	-8.00593
▁온	-8.00703
▁자리	-8.00899
▁얼른	-8.01156
란	-8.01249
▁역	-8.01542
▁그러세요	-8.02007
▁아니에요	-8.02037
무	-8.02255
▁한다	-8.02374
여	-8.02481
▁열심	-8.02613
▁음식	-8.02691
▁하루	-8.02718
▁인지	-8.02961
▁나가	-8.03166
려고	-8.03534
▁결	-8.03563
내	-8.04429
▁길동	-8.04864
▁조용히	-8.05272
▁한다고	-8.05424
▁쟤	-8.05542
▁중요합니다	-8.05766
와	-8.06038
▁같	-8.0604
▁했잖아	-8.06186
▁포	-8.06367
▁언	-8.06393
▁됐고	-8.06702
품	-8.06788
▁뒤	-8.07063
걸	-8.07606
운	-8.07769
민	-8.0814
▁상대	-8.083
▁양	-8.08799
석	-8.09021
▁버릴거야	-8.09096
돈	-8.09337
편	-8.09369
▁사실	-8.09513
▁종	-8.09605
▁협박	-8.09624
▁다리	-8.0965
▁빌려줘	-8.09821
▁당	-8.09864
야지	-8.0994
▁할거야	-8.10386
▁해도	-8.1039
▁타	-8.10409
▁모델	-8.10432
▁중요한	-8.10462
▁월	-8.10509
▁써	-8.10549
▁절대	-8.10681
▁했지	-8.1071
▁화	-8.10994
후	-8.11881
▁맘	-8.12031
▁업	-8.12707
▁의	-8.13478
▁교	-8.13497
▁맞고	-8.13518
▁술	-8.13529
▁되어	-8.13772
▁호	-8.13798
▁할게	-8.1382
▁많아	-8.13861
▁꼴	-8.13995
▁그럴	-8.1441
▁지역	-8.1487
증	-8.14915
갑	-8.15034
▁점	-8.15318
구나	-8.15418
▁문	-8.15464
▁알바	-8.15592
숨	-8.15678
▁증	-8.1583
▁보자	-8.15901
▁없이	-8.16296
▁마지막	-8.16368
▁널	-8.16992
▁않아	-8.17082
▁크	-8.17087
크	-8.17175
▁길	-8.17279
▁되지	-8.17795
색	-8.17963
매	-8.18332
▁올	-8.18772
시간	-8.191
직	-8.19484
▁사회	-8.19607
테니까	-8.1986
▁대로	-8.19922
▁않	-8.20033
▁언어	-8.20049
▁이네	-8.20152
▁그렇	-8.20271
▁최	-8.20426
출	-8.20611
교	-8.20642
▁코	-8.20719
▁행동	-8.20773
▁같아요	-8.20953
▁오해	-8.21174
▁순	-8.21444
모	-8.21677
▁관계	-8.21688
▁장애인	-8.21794
▁인가	-8.21823
▁에이	-8.21866
▁러시	-8.21887
길	-8.22274
지만	-8.22594
대해	-8.22696
▁다녀	-8.22721
▁척	-8.2283
에	-8.23458
▁맛	-8.23497
녀	-8.23576
▁하자	-8.23641
▁않습니다	-8.23647
면서	-8.23716
▁좋을	-8.2394
▁참	-8.23968
▁맞	-8.24075
▁빵	-8.24145
▁소문	-8.24229
▁보면	-8.24315
▁찐	-8.24374
명	-8.24408
▁그러	-8.24874
과	-8.25554
▁쪽	-8.26091
던데	-8.26299
개	-8.26303
▁없고	-8.26455
친	-8.27
줌	-8.27002
▁할게요	-8.27314
▁학생	-8.27439
▁예요	-8.2757
합니다	-8.27939
▁산	-8.28059
▁일로	-8.28061
줘	-8.2811
▁겁니다	-8.28318
▁있잖아	-8.28387
▁이름	-8.28452
▁꺼져	-8.28458
별	-8.28687
영	-8.28778
▁싸	-8.28923
▁있냐	-8.2924
▁관련	-8.29241
▁아닌	-8.29255
▁감사합니다	-8.29352
▁판	-8.2954
튼	-8.29752
지마	-8.30175
▁아파	-8.30265
▁없지	-8.30267
악	-8.30327
▁뿐	-8.30346
▁게임	-8.3043
▁주면	-8.30465
▁과	-8.30614
림	-8.30734
▁끝	-8.31103
초	-8.31278
▁말대꾸	-8.31298
▁없네	-8.31363
▁교육	-8.3141
▁먹어	-8.31428
▁놔	-8.3167
▁안녕하	-8.31721
량	-8.3182
락	-8.32093
겠어	-8.32097
▁담배	-8.32265
▁병신	-8.32417
▁힘들어	-8.32861
▁100	-8.32873
니깐	-8.32994
으니까	-8.33072
오	-8.33103
▁만들어	-8.33446
심	-8.33462
므	-8.33499
겠다	-8.3379
▁추	-8.34111
▁그러게	-8.34154
▁인생	-8.34234
▁허	-8.34283
▁새로	-8.34337
▁힘들	-8.34573
▁않으면	-8.35068
▁받아	-8.35135
▁욕	-8.35466
목	-8.35551
▁그래요	-8.35787
▁미친	-8.35827
주세요	-8.35948
▁책	-8.36305
▁없으면	-8.36343
▁완전	-8.36387
▁와서	-8.3673
준	-8.36787
▁이기	-8.36927
▁별	-8.36966
조	-8.37038
▁주시	-8.37606
▁장기	-8.37645
▁시키는	-8.37752
▁대학	-8.37765
▁항	-8.37975
▁들고	-8.38216
절	-8.38356
▁가장	-8.38393
견	-8.3853
▁해주	-8.38607
▁버리	-8.39024
▁씩	-8.39032
▁가게	-8.39167
▁외	-8.39274
▁죽고	-8.39344
▁드릴게요	-8.39507
설	-8.39721
▁생	-8.39843
▁필요	-8.40174
려	-8.40221
▁쓰고	-8.40314
월	-8.40528
▁봤	-8.41043
▁대체	-8.41132
▁좋	-8.41271
딴	-8.41549
▁정리	-8.41562
▁나이	-8.41596
▁그치	-8.41717
▁아니잖아	-8.41726
하고	-8.4177
▁째	-8.41932
▁화장	-8.42262
놓고	-8.42385
▁수가	-8.42435
▁그러지	-8.42904
▁관심	-8.42973
▁둬	-8.42999
써	-8.43034
▁어머	-8.43164
▁어쩌	-8.43438
더라	-8.43787
▁어머니	-8.43995
▁스	-8.44051
반	-8.44226
입	-8.44291
▁했	-8.44621
▁생긴	-8.4466
▁있는거	-8.45112
▁승진	-8.45252
▁일부	-8.45412
집	-8.45889
▁쓰	-8.45937
▁끼리	-8.46003
▁헤어지	-8.46204
라는	-8.46321
천	-8.46437
▁뒤져	-8.46564
▁좋게	-8.46607
▁하시면	-8.46615
▁토	-8.46623
실수	-8.46629
▁국가	-8.46647
연	-8.46789
턴	-8.47051
▁주제	-8.47079
사정	-8.47453
▁했다고	-8.47463
록	-8.47472
▁으로	-8.47475
▁상관	-8.47674
▁했다	-8.47751
▁입금	-8.479
어서	-8.48033
린	-8.48422
▁기억	-8.48629
▁들	-8.49111
무시	-8.49306
가지	-8.49345
따	-8.49605
▁유지	-8.49699
▁버릴	-8.49962
▁번호	-8.50132
▁프로	-8.50318
▁사와	-8.50534
▁인간	-8.50694
▁받	-8.50745
▁이따	-8.50857
▁하는게	-8.51388
▁없다	-8.51399
▁신경	-8.51448
▁제품	-8.51807
▁꺼	-8.51819
▁번만	-8.51947
▁만나	-8.52089
▁모르	-8.52109
▁점심	-8.52444
▁능력	-8.52503
호	-8.52531
▁흑	-8.52597
들	-8.52836
▁웃기	-8.52851
습	-8.5291
될까	-8.52989
▁키	-8.53084
▁빼	-8.53139
n	-8.53274
각	-8.53377
군	-8.53812
겠네	-8.54135
티	-8.54139
임	-8.54238
습니까	-8.54352
걱	-8.54528
▁받고	-8.54569
▁직장	-8.54622
시스턴	-8.54654
▁나와	-8.547
▁옆	-8.54809
병	-8.54963
▁가져와	-8.54963
▁담	-8.54976
▁아는	-8.55688
▁가야	-8.55824
억	-8.55878
▁없잖아	-8.55896
▁검	-8.55916
▁안되	-8.56203
새	-8.56477
▁준	-8.56532
▁빌려주라	-8.56568
▁생일	-8.56627
권	-8.56777
▁가봐	-8.56825
▁버린다	-8.57092
▁먹	-8.57099
▁바람	-8.57255
▁음	-8.57343
▁챗봇	-8.57497
▁인거	-8.575
▁있으면	-8.5764
▁이러세요	-8.57656
▁미쳤	-8.57827
▁만은	-8.57902
▁총	-8.57907
▁티	-8.57962
▁또	-8.58082
▁막	-8.58396
▁봐요	-8.58421
카	-8.58447
▁되잖아	-8.58665
▁다르	-8.58668
▁천	-8.58783
나요	-8.58887
▁아가	-8.58927
▁신입	-8.58934
▁갖고	-8.59006
▁아까	-8.59266
▁밤	-8.59381
▁죄	-8.59529
▁하신	-8.59622
▁될까	-8.5967
▁출	-8.59827
▁대답	-8.59907
▁좋아하는	-8.6005
경	-8.601
▁입고	-8.60472
▁와	-8.60516
던	-8.61021
구요	-8.61065
▁두고	-8.61162
▁20	-8.61333
▁으	-8.61441
보기	-8.61472
아서	-8.61514
▁경험	-8.61515
희	-8.61522
▁운동	-8.61528
▁일본	-8.61576
▁누군	-8.61595
▁어렵습니다	-8.61624
▁되면	-8.61721
▁돌려줘	-8.61773
▁관리	-8.62032
▁30	-8.62306
▁보여	-8.62335
▁기다려	-8.62453
▁불러	-8.62532
▁함	-8.62669
▁없다고	-8.62762
표	-8.62901
▁봤어	-8.62905
▁건강	-8.63456
함	-8.63514
▁께	-8.63742
▁이러지	-8.63828
▁쓰레기	-8.6431
▁심	-8.6447
▁보이	-8.64478
▁별로	-8.64539
는게	-8.64616
▁귀	-8.6497
▁테	-8.65156
▁있고	-8.65505
어요	-8.65691
살	-8.65719
▁내려	-8.65762
▁한국	-8.65779
▁받는	-8.65842
▁잡	-8.65932
▁누구	-8.66098
▁4	-8.66099
▁문의	-8.66179
▁몇	-8.66198
▁인터	-8.66225
애	-8.66238
▁피해	-8.66242
▁주차	-8.6634
▁있을까	-8.66362
▁잔	-8.66399
▁원하는	-8.6649
라면	-8.6657
▁됐어	-8.66715
▁싶지	-8.66734
시면	-8.66961
사람	-8.67041
▁다니	-8.67403
▁백	-8.67565
학	-8.67659
▁하려고	-8.67846
▁받은	-8.6785
무리	-8.67951
텐데	-8.68143
▁있다고	-8.68257
법	-8.68266
욱	-8.68275
▁아뇨	-8.68578
의미	-8.69223
▁장사	-8.69234
▁안해	-8.69521
▁고마워	-8.69522
핸	-8.69625
대체	-8.69678
▁그런거	-8.69793
▁최대	-8.6999
▁그러지마	-8.70375
▁아침	-8.70442
▁봐	-8.70552
▁꼬	-8.70589
▁보는	-8.70772
▁여행	-8.70986
역	-8.71143
▁야	-8.71156
▁안되는	-8.71238
▁아니지	-8.71556
▁회식	-8.71575
▁겁	-8.71591
▁전문	-8.71754
▁이냐	-8.71755
생활	-8.71764
▁영	-8.72068
▁6	-8.72107
▁복	-8.7212
담	-8.72394
▁군	-8.72553
▁모르는	-8.72601
▁똑같	-8.72981
▁까지	-8.73013
▁다를	-8.73031
▁결과	-8.73073
▁현금	-8.73211
▁지난	-8.73413
▁가진	-8.73739
▁그러냐	-8.73781
▁이를	-8.73813
▁하지말고	-8.73877
박	-8.74254
종	-8.74446
언	-8.74503
▁찾아	-8.74663
행	-8.74714
해서	-8.74749
형	-8.74802
▁메	-8.74832
▁일주	-8.75019
두	-8.75033
▁고려	-8.75281
론	-8.75372
겠습니다	-8.75527
▁시키	-8.75612
▁영상	-8.758
▁필요한	-8.76424
겠지	-8.76491
▁왕	-8.76564
▁속	-8.76575
▁기술	-8.76763
▁임	-8.76769
▁폭	-8.76984
현	-8.77097
▁버스	-8.77167
▁저리	-8.77217
등	-8.77297
▁이용	-8.7767
▁발전	-8.77997
▁글	-8.78143
▁주변	-8.78236
▁태	-8.78709
▁규	-8.78831
▁그래	-8.78835
랑	-8.78931
▁그러고	-8.79039
▁여러	-8.79455
▁시험	-8.79478
▁까	-8.79851
응	-8.79853
▁안녕	-8.80112
▁인정	-8.80194
짜	-8.80305
▁인가요	-8.80553
향	-8.80683
▁법	-8.80851
▁먹으면	-8.80979
▁진행	-8.81006
▁저녁	-8.81079
▁가면	-8.811
▁주고	-8.81118
▁같아서	-8.81133
▁변	-8.81205
귀	-8.81531
▁살려줘	-8.81701
오면	-8.8192
▁알려	-8.81957
▁착	-8.81997
더니	-8.82147
▁표	-8.82173
음주	-8.82224
▁I	-8.82507
▁가자	-8.82975
▁관	-8.83005
▁데이	-8.83092
▁초	-8.83206
칠	-8.83472
미리	-8.8355
▁버	-8.83672
▁하니	-8.83748
▁값	-8.83884
소리	-8.83913
넷	-8.83935
젝	-8.83935
하면	-8.8402
▁않고	-8.8412
▁뽑아	-8.84231
▁채	-8.8468
▁계약	-8.84806
▁추가	-8.84828
▁드리겠습니다	-8.84967
틀	-8.85007
름	-8.85465
▁행	-8.85567
련	-8.85568
버	-8.85612
▁어딨어	-8.85639
▁이라는	-8.85663
능	-8.85814
▁이래	-8.85881
레	-8.85922
▁뻔	-8.86021
다가	-8.86055
▁손가락	-8.8611
▁회의	-8.86171
▁국	-8.86258
▁분명	-8.86396
▁아버지	-8.86406
▁가는	-8.86456
▁운전	-8.87024
▁가져가	-8.87479
십니까	-8.87569
▁하잖아	-8.87617
셔서	-8.87687
▁비밀	-8.87801
합	-8.87858
▁청소	-8.87976
▁있으니	-8.88213
거든	-8.88261
▁께서	-8.88334
▁특	-8.88607
▁시켜	-8.89078
좌	-8.8917
▁때려	-8.89258
▁평	-8.89396
▁걔	-8.896
▁출근	-8.89673
그	-8.89951
▁상담	-8.90077
▁대표	-8.90262
▁안보	-8.90362
▁먹는	-8.90379
▁왔어	-8.90651
▁어떻	-8.90689
▁로	-8.90692
▁to	-8.90817
▁짝	-8.90843
던가	-8.91164
▁봤는데	-8.9121
는데요	-8.91235
▁죄송하지	-8.91327
▁오래	-8.91365
줄까	-8.91399
가지고	-8.9142
▁오랜	-8.9143
▁여보	-8.91475
▁되었습니다	-8.91557
▁듣	-8.9163
▁등록	-8.91693
▁들어가	-8.91704
▁이러면	-8.91877
▁활	-8.9188
혀	-8.91934
거에요	-8.91976
▁나빠	-8.92074
▁봐야	-8.92098
▁괜찮아	-8.92133
▁며	-8.92199
▁나쁜	-8.92459
▁짜	-8.92528
▁패	-8.92661
항	-8.92799
령	-8.92869
▁되고	-8.92938
잔	-8.93012
▁악	-8.93145
▁인기	-8.93153
▁평생	-8.93329
르	-8.93366
▁있다면	-8.93465
▁충분	-8.9358
▁뜻	-8.93715
▁성적	-8.93748
▁맞는	-8.94132
▁미쳤어	-8.94239
▁승	-8.94343
▁해줄게	-8.94346
프	-8.94379
▁팔	-8.94484
하지	-8.94625
▁썸	-8.95018
▁엄청	-8.9513
▁바랍니다	-8.95214
코	-8.95258
▁쓸	-8.95329
▁싫은데	-8.95344
▁권	-8.95501
▁했냐	-8.95655
s	-8.95887
예	-8.96078
▁일정	-8.9614
▁쉬	-8.96233
▁어떡해	-8.96341
▁드	-8.96655
▁싶으면	-8.96797
복	-8.96837
본	-8.96873
▁영향	-8.97071
▁되게	-8.97089
▁어린	-8.97097
▁어휴	-8.97111
립	-8.97168
▁어머님	-8.97277
▁간다	-8.97297
▁살려	-8.97348
▁할거	-8.97456
▁있는지	-8.97468
려면	-8.97666
폐	-8.9779
니다	-8.9785
▁잠	-8.97903
▁준다	-8.98272
▁보지	-8.98353
▁집안	-8.98493
▁사는	-8.98698
▁절	-8.98746
▁삶	-8.98899
▁않은	-8.98938
▁급	-8.99003
▁센	-8.99035
▁모양	-8.99054
▁엉	-8.99199
▁아닌가	-8.99205
▁사업	-8.99666
알	-8.99669
▁꺼내	-8.99697
▁가라	-8.99723
찬	-8.9981
▁책임	-8.99874
▁않는	-8.99985
노	-9.00112
▁되는데	-9.00184
남	-9.00412
루	-9.00417
즈	-9.00596
▁무서워	-9.00621
판	-9.00676
▁버리고	-9.00775
▁돌	-9.00783
라서	-9.00837
▁첫	-9.00898
▁닥치	-9.01045
▁회	-9.01089
디	-9.01191
▁다니는	-9.01221
▁죄송하면	-9.01249
▁그러는거야	-9.01317
▁형님	-9.01597
▁했나	-9.01611
▁알겠어요	-9.0168
▁해주시	-9.01681
▁들었어	-9.01717
▁트	-9.01739
▁합	-9.01863
▁7	-9.01879
▁같지	-9.01895
▁그랬	-9.0195
▁그랬어	-9.02342
쉽게	-9.02515
▁가능	-9.02516
▁얻	-9.0263
▁죽고싶	-9.02992
▁임마	-9.03168
▁폰	-9.03215
▁다야	-9.03292
▁안됩니다	-9.03397
▁찾	-9.03545
▁보세요	-9.03665
▁싶어서	-9.0374
▁짜증나	-9.04002
▁없나	-9.04048
▁철	-9.04071
▁싶은데	-9.04435
사건	-9.0455
션	-9.04749
지도	-9.0489
▁해보시	-9.05012
▁맞아야	-9.05036
▁카페	-9.05108
▁넵	-9.05179
▁컴	-9.05179
▁판매	-9.05194
▁어려운	-9.05219
팅	-9.05242
▁치료	-9.05449
▁주는	-9.05576
▁영화	-9.05897
▁보니	-9.05991
e	-9.06128
네요	-9.06146
천원	-9.06255
탕	-9.06415
▁시끄럽	-9.06423
▁받을	-9.0661
▁생기	-9.06637
▁그러는데	-9.06662
▁참고	-9.06723
▁당연	-9.0678
울	-9.06893
▁부서	-9.06935
▁나라	-9.06978
▁많	-9.07058
▁젠	-9.07126
릴	-9.0719
▁됐	-9.07219
이세	-9.07245
▁범죄	-9.07424
바	-9.07434
▁여보세요	-9.07455
▁주임	-9.07568
망	-9.07833
▁않을	-9.07866
▁아닌가요	-9.07919
▁싫다고	-9.07987
▁되는거	-9.08046
▁사고	-9.08052
째	-9.08054
▁싶은	-9.08285
▁거리	-9.08564
▁각	-9.08605
▁친	-9.08622
▁왔	-9.08696
▁듣고	-9.08826
▁걸어	-9.0908
▁트이	-9.09083
▁다닐	-9.09226
▁축	-9.09348
▁젊은	-9.0945
▁솔직히	-9.09507
▁가능한	-9.09582
▁헤어져	-9.09627
▁빨	-9.09643
▁계산	-9.0972
▁바보	-9.09966
▁끝나고	-9.09968
▁싫	-9.10045
▁편하게	-9.1011
▁북	-9.10163
▁수행	-9.10202
▁거래	-9.10402
▁만큼	-9.10485
책	-9.10548
▁설	-9.10664
▁보네	-9.10966
다면	-9.11057
▁데리	-9.11161
다며	-9.11345
파	-9.11438
▁됐다	-9.11611
▁이상한	-9.1168
▁이자	-9.11681
▁안되는데	-9.11745
데요	-9.11818
▁바꿔	-9.1186
▁필요합니다	-9.11874
▁이러지마	-9.11904
▁사원	-9.1193
▁힘	-9.1194
▁말아줘	-9.12153
▁레	-9.12207
▁싶냐	-9.12319
y	-9.12488
▁싫어요	-9.12546
▁19	-9.1265
▁체	-9.1265
참	-9.12937
▁있기	-9.13123
▁느	-9.13216
야야	-9.13319
▁숙	-9.13321
▁보시	-9.1334
때	-9.13396
▁배우	-9.13443
▁할까	-9.13869
▁꿈	-9.13984
▁지랄	-9.14024
▁적당히	-9.14058
▁생겨서	-9.14134
▁봐주세요	-9.14182
▁편	-9.14216
▁좋아해	-9.14522
외	-9.14616
▁있네	-9.14717
키	-9.14879
▁죽는	-9.14957
▁만이	-9.15047
▁이러	-9.15194
▁긴	-9.15257
▁아시	-9.15272
번호	-9.15284
▁8	-9.15338
▁안될	-9.15503
▁개발	-9.15687
▁싶	-9.15959
▁등	-9.16044
▁이럴	-9.16174
▁오면	-9.16189
▁나서	-9.16201
로운	-9.16268
▁평가	-9.16356
▁부탁드립니다	-9.16376
▁담당	-9.16408
과의	-9.16548
▁갔다	-9.16603
▁먹을	-9.16611
▁한다는	-9.16857
▁되나요	-9.16963
스크	-9.17129
▁잡아	-9.17169
▁가져다	-9.1717
▁핑	-9.17255
▁S	-9.17297
▁효	-9.17388
▁쓰면	-9.17489
▁색	-9.17525
▁기사	-9.17674
쪽	-9.17829
▁치고	-9.18124
▁없을	-9.18134
▁했으면	-9.18218
▁인해	-9.18233
램	-9.18267
▁스타	-9.18329
대답	-9.18378
▁맞을	-9.18485
랜	-9.18551
▁있다는	-9.18565
▁몰	-9.1859
▁저렇게	-9.18687
▁편의	-9.18718
▁최선	-9.18735
▁맞지	-9.18765
▁십	-9.18775
액	-9.18853
든지	-9.1889
이므	-9.19168
▁하시	-9.19191
▁커	-9.19209
▁하실	-9.19209
▁독	-9.1924
▁만들	-9.19371
▁하셨	-9.19389
▁주의	-9.19397
▁어른	-9.19412
▁해와	-9.19947
이전	-9.19974
▁받아서	-9.19995
▁탈	-9.20032
시기	-9.20516
▁나온	-9.2059
청	-9.20762
▁울	-9.20911
▁장애	-9.20947
▁뒷	-9.20951
▁나올	-9.21028
▁200	-9.21338
▁아니라고	-9.21344
▁할래	-9.21367
▁중국	-9.21368
▁해보세요	-9.21395
다니까	-9.21784
▁사무	-9.21791
▁말아주세요	-9.2193
▁수술	-9.21935
▁해라	-9.21995
▁맞자	-9.22102
▁아프	-9.22279
▁해줄	-9.22292
투	-9.22756
▁조심	-9.2276
꺼야	-9.22892
▁아님	-9.22894
▁와라	-9.23053
템	-9.23237
▁아이	-9.2335
는거	-9.2342
▁헐	-9.23449
▁싹	-9.23497
줄게	-9.23542
죄	-9.23577
▁t	-9.23599
▁땅	-9.23701
▁소개	-9.23709
▁죄송한데	-9.23715
창	-9.23768
▁취소	-9.23778
▁스트레	-9.24011
▁연구	-9.24062
퓨	-9.24134
▁낼	-9.24159
▁죽일	-9.24323
▁협	-9.24358
▁이쁘다	-9.24447
더	-9.24448
▁죽는다	-9.24449
환	-9.24719
▁떼	-9.24814
▁적절	-9.24953
▁재밌	-9.24978
▁땐	-9.25102
▁이니	-9.25196
▁진정	-9.25226
규	-9.25287
획	-9.25327
▁오는	-9.25396
▁다른	-9.25546
▁내꺼	-9.25658
독	-9.25702
▁아닙니	-9.25918
▁나왔	-9.25973
거지	-9.26008
▁놀	-9.26014
▁시킨	-9.261
겠냐	-9.26106
▁대통령	-9.26173
거리	-9.26227
▁가져	-9.26241
▁돌려주세요	-9.26288
▁신호	-9.26325
길래	-9.26346
서요	-9.2635
▁죽자	-9.26369
▁내놓으라고	-9.26402
▁보인다	-9.26462
▁살이	-9.26508
▁하였습니다	-9.26613
▁사오	-9.26614
사원	-9.26784
▁줘야	-9.26828
▁드립니다	-9.27309
▁감히	-9.27344
▁좋지	-9.27377
▁죽고싶어	-9.27441
▁하시고	-9.27499
▁비싼	-9.27663
군대	-9.27755
▁고통	-9.2781
▁해보는	-9.27883
▁열어	-9.27913
례	-9.27971
으	-9.28042
▁나은	-9.28346
딜	-9.28402
▁돌아가	-9.28581
▁세탁	-9.28759
▁믿어	-9.28763
▁프로그	-9.28763
백	-9.28817
▁높은	-9.28867
▁이혼	-9.28882
철	-9.28943
▁해보겠습니다	-9.28955
▁작업	-9.28958
▁브	-9.28979
▁음료	-9.29072
▁세계	-9.291
▁the	-9.29135
▁끝내	-9.2922
▁버려	-9.2941
▁노래	-9.29445
▁홍	-9.29452
▁가고	-9.29843
지는	-9.29977
▁창	-9.30169
신지	-9.30223
▁보라	-9.3049
까봐	-9.30588
▁풀	-9.30593
츠	-9.31104
▁가져오	-9.31198
▁으로도	-9.31303
▁괜	-9.31341
▁비싸	-9.31402
▁써야	-9.31431
▁you	-9.31566
▁자격	-9.31785
리가	-9.31802
▁하는지	-9.31804
착	-9.31818
▁믿고	-9.32069
▁해보	-9.32147
▁하셔서	-9.32373
가요	-9.32377
극	-9.324
▁동물	-9.32606
골	-9.32702
▁죽기	-9.3271
▁밖	-9.32718
워	-9.32826
▁자연	-9.33115
술	-9.33142
▁오라	-9.33155
▁나쁘	-9.33205
▁찍	-9.33305
▁망	-9.33554
▁없냐	-9.33646
▁이러는	-9.33683
가리	-9.33734
▁더러워	-9.34027
만큼	-9.3406
▁대학교	-9.34116
▁글쎄	-9.34225
▁뒤지	-9.34237
▁어려울	-9.34285
표현	-9.34288
▁이런거	-9.34441
있어	-9.34442
▁개월	-9.34444
닥	-9.34457
한데	-9.34464
▁느끼	-9.34491
▁달라질	-9.34536
▁심하	-9.34537
▁상호	-9.34702
▁저런	-9.34731
▁문화	-9.34829
▁대가	-9.34867
침	-9.34984
▁했던	-9.35126
▁윗	-9.35189
▁깔	-9.35539
▁맛있	-9.35619
토	-9.35654
▁뭐라	-9.35717
▁찍어	-9.35795
▁맞기	-9.35811
▁오지	-9.35901
셔	-9.35967
▁않나	-9.3608
▁하나	-9.36544
▁1000	-9.36586
▁산다	-9.3665
▁털어	-9.36869
▁마시고	-9.37039
▁메뉴	-9.3708
▁해주는	-9.37129
셨어요	-9.37314
▁응	-9.37435
▁좋겠다	-9.37522
▁그러는	-9.37659
▁헛소	-9.37685
▁건지	-9.37707
▁상품	-9.37764
▁불편하	-9.37817
▁물어	-9.37824
▁맞잖아	-9.37838
▁볼까	-9.37929
활용	-9.38016
▁안주	-9.38183
▁선생	-9.38201
북	-9.38209
▁되나	-9.38253
▁암	-9.38297
▁나와서	-9.38389
▁없으	-9.38399
▁둘	-9.3845
▁라니	-9.38489
▁않아요	-9.38854
킹	-9.38923
▁짜증나게	-9.38957
▁된다고	-9.38962
난	-9.39074
▁이상	-9.39187
▁더럽	-9.39369
▁따라와	-9.3947
▁바쁜	-9.39488
▁많아서	-9.3949
슴	-9.3968
칭	-9.3968
▁갚아	-9.39969
▁자동차	-9.40084
▁쥐	-9.40106
▁덕	-9.40118
▁그러십니까	-9.40177
설명	-9.40288
▁하긴	-9.40522
▁9	-9.40572
▁갚을게	-9.40669
▁일어나	-9.40744
▁돌려	-9.40817
▁끝나	-9.4101
쟁	-9.41057
▁어쩌라	-9.41075
▁씨발	-9.41086
▁찢어	-9.41138
▁하려	-9.41188
패	-9.41188
강	-9.41432
▁받아야	-9.41489
러운	-9.41503
▁향	-9.41516
▁시스	-9.41665
▁믿	-9.41745
▁끼	-9.42171
텔	-9.42293
▁그리	-9.42295
▁재미	-9.42439
▁쇼	-9.42811
▁몰라서	-9.42869
▁내놔라	-9.42958
▁도둑	-9.43089
▁합의	-9.4315
▁삼	-9.43159
▁빌려주	-9.43174
▁돌려줄게	-9.4324
▁잔말	-9.43281
▁닥쳐	-9.43286
▁지내	-9.43427
다는	-9.43534
▁농	-9.43548
▁넘	-9.43579
▁찔러	-9.43579
▁충	-9.43623
▁똑같은	-9.43629
▁50	-9.43672
▁스럽	-9.43803
기전에	-9.44062
스트	-9.44486
칙	-9.44596
▁작은	-9.44737
▁의사	-9.44747
▁00	-9.44906
▁입사	-9.44936
▁가시	-9.44944
겠지만	-9.44976
▁하겠어	-9.45043
▁받으	-9.45077
되	-9.45362
▁같은데요	-9.45484
▁부러	-9.45496
▁해주면	-9.45516
▁샀	-9.45669
▁아니냐	-9.45698
▁끝났	-9.45743
껏	-9.45836
▁일찍	-9.46177
▁습관	-9.46179
▁골프	-9.46181
▁놀러	-9.46196
▁무서운	-9.46225
▁진심	-9.4633
▁많습니다	-9.46377
▁자세한	-9.46418
▁임신	-9.4642
듯	-9.46557
▁는걸	-9.46614
▁구해	-9.46843
▁올려	-9.46849
송	-9.46893
었습니다	-9.47156
▁부르	-9.47186
▁윤	-9.47269
냐고	-9.47458
▁서울	-9.47467
었는데	-9.47683
▁보호	-9.47793
드리기	-9.47969
▁투	-9.48321
혜	-9.48339
▁보이지	-9.48443
▁우리	-9.48522
에요	-9.48601
탄	-9.4863
▁하나요	-9.48668
▁도시	-9.48713
▁털	-9.48737
▁지켜	-9.48737
▁질러	-9.48917
▁살아	-9.48932
▁싶다	-9.48948
T	-9.49235
사이	-9.4927
▁밑	-9.49284
으라고	-9.49285
▁졸	-9.4934
▁체육	-9.49396
▁준다고	-9.49415
▁잖아요	-9.49458
가세	-9.49468
▁넣어	-9.49494
겠어요	-9.49524
▁비켜	-9.49535
▁모르겠어	-9.49584
▁같네	-9.49657
▁빌려주면	-9.4988
▁단말	-9.49949
▁이사	-9.5
▁가져간다	-9.50018
지말고	-9.5009
▁놓고	-9.50117
▁안되겠다	-9.5014
▁생겼어	-9.50275
▁덜	-9.5029
▁좋다	-9.50402
or	-9.5042
▁않을까	-9.50502
벌	-9.50729
봉	-9.50748
순	-9.50793
▁과정	-9.50843
▁급하	-9.51092
▁떠	-9.51267
▁접	-9.51512
▁300	-9.51635
쳐	-9.51915
케	-9.51928
▁따라	-9.52022
예요	-9.52107
톡	-9.52114
던지	-9.52213
촌	-9.52395
벤	-9.52395
▁맛있는	-9.52424
▁납	-9.52642
▁좋아서	-9.52716
▁쯧쯧	-9.52721
▁블루	-9.52725
▁내려놔	-9.52835
▁급한	-9.52888
▁개새끼	-9.52903
▁그렇다면	-9.53077
팀	-9.53119
▁됐네	-9.53144
▁아닌거	-9.53239
▁많네	-9.5328
▁나쁘게	-9.53324
ke	-9.53339
and	-9.5339
▁다니냐	-9.53435
▁차려	-9.53459
로서	-9.53472
▁피부	-9.53562
▁아는데	-9.53584
▁동기	-9.53627
▁않냐	-9.5365
▁죄송	-9.53721
▁정치	-9.53768
▁알어	-9.53813
▁생겼다	-9.53824
▁라니까	-9.53842
▁하겠다	-9.53857
▁나갈	-9.53965
▁자유	-9.5397
먼	-9.54044
▁식사	-9.54277
▁식이	-9.54374
▁짤	-9.5449
▁근무	-9.54504
아버지	-9.54592
▁쓴	-9.54613
▁빌	-9.54617
▁조사	-9.54722
▁않았	-9.54759
▁웃겨	-9.54862
▁500	-9.54972
▁하겠	-9.55308
그래	-9.55349
▁하던	-9.55362
▁보게	-9.555
납	-9.55588
탓	-9.55843
▁맞는데	-9.56039
▁남아	-9.56163
익	-9.56259
▁않습니까	-9.56322
▁진정하세요	-9.56331
▁씻고	-9.56378
▁나대	-9.56387
▁미안하다	-9.56394
▁그만하세요	-9.56413
▁해드리겠습니다	-9.5645
▁mo	-9.56461
▁진정해	-9.56656
▁안되겠네	-9.56662
▁미안한	-9.56681
▁괜찮	-9.56698
▁놀리	-9.56716
▁줬	-9.5674
▁안된다고	-9.57051
▁둔	-9.57115
A	-9.57183
이면	-9.57241
▁쓰는	-9.57274
▁소중한	-9.5732
▁건강한	-9.57328
▁지방	-9.57393
▁빠지	-9.5742
▁아니라니까	-9.57459
▁벌어	-9.57468
▁싫다	-9.57487
▁와이	-9.57544
▁알아듣	-9.57562
▁샀어	-9.57708
▁낙	-9.57936
▁해줘야	-9.57967
▁하는건	-9.58006
▁일상	-9.58127
▁지지	-9.58289
▁줬잖아	-9.58314
아냐	-9.58453
▁심해	-9.58503
▁챙겨	-9.58633
▁필	-9.58662
▁먹으	-9.58993
▁그렇다	-9.59347
▁골	-9.5936
쯤	-9.59415
부터	-9.59435
▁들려	-9.59551
타	-9.59579
벽	-9.5959
하세요	-9.59654
▁논	-9.597
▁어쭈	-9.59751
▁부르셨	-9.59798
▁다름이	-9.598
▁다니면	-9.59823
포	-9.59895
▁당연하	-9.59924
▁변화	-9.59926
리고	-9.59938
▁넘어가	-9.59952
▁망치	-9.59975
▁빌리	-9.60042
▁어울리	-9.60043
▁기전	-9.60054
▁건드리지	-9.60157
래야	-9.60234
▁휴대	-9.60325
re	-9.60359
▁필요하	-9.60571
니야	-9.60591
m	-9.60771
▁특정	-9.6078
링	-9.6087
아아	-9.60877
▁늘	-9.61107
▁가능합니다	-9.61125
oke	-9.61152
▁오냐	-9.61536
자고	-9.62041
▁할수	-9.62177
▁있었	-9.62261
▁보상	-9.62293
▁딴	-9.62325
▁뜨	-9.62386
▁타고	-9.62452
▁했잖아요	-9.62524
▁어려워	-9.62651
▁대부	-9.62729
▁모르겠	-9.62742
맛	-9.62763
▁있어야	-9.62851
▁빌려줄	-9.62854
▁안되지	-9.62961
정보	-9.63116
앱	-9.63118
▁해볼게	-9.6318
▁먹었	-9.63213
▁드리	-9.63305
▁뒤질래	-9.63516
▁되겠네	-9.63571
▁싫으니까	-9.63593
정부	-9.63649
▁자랑	-9.63749
하네	-9.63846
▁팬	-9.63898
▁역사	-9.639
▁풀어	-9.64005
▁사생활	-9.64014
려서	-9.64037
는거지	-9.64098
▁잘라	-9.64176
▁구성	-9.64267
▁다니지	-9.64326
▁바빠서	-9.64353
▁좀	-9.6436
▁겁나	-9.64368
▁예쁘다	-9.64438
▁때리	-9.64574
▁죽으면	-9.64665
▁늦게	-9.6471
▁가정	-9.64723
▁경제	-9.64791
▁할거에요	-9.64915
야겠다	-9.64954
래서	-9.65001
께	-9.65244
▁있으니까	-9.65382
▁왔는데	-9.65645
▁차이	-9.65775
테	-9.65849
▁모르고	-9.6589
▁찾아가	-9.65913
▁사기	-9.66
값	-9.6605
▁이쁘	-9.66059
겠는데	-9.66231
▁바빠	-9.6642
빵	-9.66454
▁방해	-9.66832
▁에게	-9.66867
딩	-9.66964
롱	-9.66964
뷰	-9.66964
▁a	-9.67048
▁된다	-9.67076
▁걍	-9.6717
브	-9.67255
▁갚을	-9.67327
▁으악	-9.67336
▁빠르	-9.6736
▁끌	-9.67449
▁기다려주세요	-9.67508
율	-9.67524
▁좋은데	-9.67553
▁쇼핑	-9.67583
▁어딘	-9.67586
▁D	-9.67589
▁보내주세요	-9.67632
t	-9.67694
꺼	-9.67741
▁벗어	-9.6775
▁필요할	-9.67792
▁했을	-9.67874
▁밀	-9.68038
▁바쁘	-9.68164
▁할꺼야	-9.68184
시는	-9.68208
▁아닐	-9.68245
▁고등학	-9.68275
아내	-9.68427
▁지워	-9.68461
▁그런건	-9.68517
손	-9.68524
▁했는지	-9.6872
▁청	-9.68854
▁모른	-9.6903
웃	-9.69126
▁알려주시	-9.69341
▁보이는	-9.69438
▁의원	-9.6953
▁좋아하	-9.69533
▁노트	-9.69557
▁써서	-9.69785
▁11	-9.69837
▁한거	-9.69926
▁맞다	-9.70053
▁운	-9.7007
▁나가는	-9.70266
▁내야	-9.70394
▁였	-9.704
▁워	-9.70502
▁바꾸	-9.70671
▁빠져	-9.70693
▁흐	-9.70815
▁했네	-9.70877
꽤	-9.70964
▁좋겠어	-9.70979
짝	-9.71164
▁웹	-9.71166
▁물어보	-9.71287
때로	-9.71301
▁압	-9.71389
▁의심	-9.7142
▁괜찮습니다	-9.71465
야하는데	-9.71474
▁비행	-9.71496
머	-9.71499
▁죽일거야	-9.71558
옥	-9.71625
▁알려줘	-9.7165
▁하러	-9.71662
▁해달라고	-9.71754
▁삭	-9.71783
▁받으면	-9.71921
삼	-9.72004
▁없다니까	-9.72145
▁만드	-9.72157
▁같냐	-9.72235
▁됐지	-9.72291
▁받았	-9.72364
수도	-9.72424
▁12	-9.72425
▁수학	-9.72446
까요	-9.72509
보다	-9.7257
양	-9.72989
▁부정	-9.73101
승	-9.73123
▁봐줘	-9.73159
영수	-9.73169
▁죽어야	-9.73196
▁맞춰	-9.73269
▁있던	-9.73351
▁이상하	-9.7337
▁멈춰	-9.73462
▁심하다	-9.73841
답	-9.74058
▁조심해	-9.74068
▁갈게	-9.7413
▁타이	-9.74208
이프	-9.74221
▁해드릴	-9.74222
▁모를	-9.74283
념	-9.74552
▁느껴	-9.74559
▁보내면	-9.74763
득	-9.74859
▁시끄러워	-9.74866
▁드렸	-9.74949
▁대박	-9.75048
▁가기	-9.75083
룩	-9.75131
뼈	-9.75131
▁아이스	-9.75151
▁힘든	-9.75208
는지	-9.75282
▁팔아	-9.75286
▁깊	-9.75328
져	-9.75431
▁지은	-9.75432
▁시끄러	-9.75442
▁알겠지	-9.75502
▁아이디	-9.75506
▁음악	-9.75539
▁그만하라고	-9.7558
▁디자	-9.75594
▁치워	-9.75637
폭	-9.75667
▁배려	-9.75706
▁도와주세요	-9.75734
▁막내	-9.75737
▁왜	-9.75746
▁없애	-9.75751
▁해오겠습니다	-9.75788
영상	-9.75812
▁불가능	-9.75897
▁축구	-9.75923
▁하늘	-9.75958
▁자세	-9.75981
▁공개	-9.75995
▁사주	-9.76012
▁좋을거야	-9.76039
▁소유	-9.76178
▁그러다	-9.76182
땐	-9.76235
▁참아	-9.7626
▁권리	-9.76283
▁없으니	-9.76317
▁자르	-9.76355
▁앉아	-9.76444
▁갚	-9.76453
땡	-9.76514
자체	-9.76549
▁주지	-9.76556
겠다고	-9.76563
▁구라	-9.76574
▁빈	-9.76625
▁했나요	-9.76696
벨	-9.76768
▁죽인다	-9.76838
▁봐서	-9.76995
온	-9.77093
▁살기	-9.7713
▁혼	-9.77181
▁아니니	-9.77193
▁한건데	-9.77217
침해	-9.77233
▁하시네요	-9.77395
▁본데	-9.77511
▁죽은	-9.77666
▁빼고	-9.77674
▁그날	-9.77949
▁드린	-9.77949
▁키우	-9.78015
▁가치	-9.78064
족	-9.78102
▁들어오	-9.78119
▁몰랐	-9.78236
밥	-9.78302
▁대중	-9.78471
▁콩	-9.78596
▁곤란	-9.78596
▁떨어지	-9.78702
▁광	-9.78818
▁먹은	-9.79052
▁캐	-9.79142
▁돌아	-9.7915
▁떨어져	-9.79155
게요	-9.79159
▁떡	-9.79196
메	-9.79242
▁불편	-9.79252
▁필요해	-9.79339
뢰	-9.79479
릎	-9.79479
▁늦	-9.79517
▁이동	-9.79685
▁쪼잔	-9.7978
▁졸업	-9.79836
▁꺼지라고	-9.79895
▁경쟁	-9.799
는건데	-9.79903
▁이라니	-9.79904
▁죽을래	-9.79972
▁구역	-9.79976
▁되는지	-9.79993
▁낫	-9.80013
▁뛰어	-9.80027
▁모르겠습니다	-9.80054
▁죄송할	-9.80077
▁줬더니	-9.80085
▁국내	-9.80087
▁쏴	-9.80136
▁해준	-9.80155
씩	-9.80183
나면	-9.80245
▁올리	-9.80256
▁대충	-9.80297
▁우습	-9.80442
시죠	-9.80538
▁유전	-9.80665
▁만든	-9.8071
▁필요해서	-9.80751
▁부당한	-9.80772
▁죽는거야	-9.80807
▁재수	-9.80855
▁신체	-9.80937
글	-9.80972
▁부터	-9.80995
▁쌤	-9.81026
▁괜찮은	-9.81068
▁감사	-9.81217
▁안된다	-9.8133
▁있죠	-9.81444
▁방문	-9.81503
▁가진거	-9.81582
▁층	-9.81712
▁느려	-9.81839
▁김대	-9.81919
▁꼬박	-9.81957
▁올린	-9.81997
풍	-9.82088
멍	-9.82127
▁타는	-9.82264
▁낸	-9.82293
휴	-9.82467
▁반지	-9.82493
파트	-9.82505
▁한지	-9.82556
아니야	-9.82595
▁성장	-9.82779
▁깨	-9.8304
▁선거	-9.8307
▁살아야	-9.83206
갈	-9.83487
▁썩	-9.83496
▁pro	-9.83573
▁드는	-9.83615
▁해줘요	-9.83703
▁셔	-9.83797
▁궁금하	-9.83806
▁받은거	-9.8381
▁심한	-9.83811
▁나오는	-9.83825
▁후보	-9.84022
낌	-9.84024
푼	-9.84024
▁어어	-9.84042
age	-9.84115
객	-9.84137
del	-9.84201
▁녀석	-9.84328
▁엄	-9.84347
▁썼	-9.8439
▁알려져	-9.84394
▁정신차려	-9.84411
▁놀리지마	-9.84454
거든요	-9.84465
▁외국	-9.84481
▁멍청한	-9.84503
▁샤	-9.84537
▁하느라	-9.84633
▁미안하네	-9.84642
▁독일	-9.84823
유포	-9.84826
▁맞습니다	-9.84838
십	-9.84844
▁핫	-9.84914
▁웃긴다	-9.84964
▁회원	-9.85007
▁탕	-9.85062
입니다	-9.85121
▁바쁜데	-9.85337
주면	-9.85606
▁어렵	-9.85675
▁la	-9.85892
▁됐어요	-9.8611
▁들어와	-9.86172
▁이상해	-9.86218
▁먹지	-9.86249
▁땡	-9.86254
빨	-9.86403
▁은행	-9.86446
▁즐	-9.86449
▁들이	-9.86477
▁극	-9.86521
▁하신거	-9.86556
▁쉬는	-9.86558
▁뻔하	-9.86665
▁어딨	-9.86847
범	-9.86852
▁주민	-9.86881
▁궁금해	-9.87011
앙	-9.87133
▁희	-9.87276
▁걷	-9.87497
▁되었	-9.87515
▁받기	-9.87566
허	-9.87578
추	-9.87726
▁클	-9.87977
▁문자	-9.88062
▁안전	-9.88131
▁가려	-9.8827
▁입은	-9.88294
▁정신차리	-9.88453
▁내놓	-9.88467
▁가상	-9.88629
시나요	-9.88687
릇	-9.88786
엥	-9.88786
잉	-9.88786
ngu	-9.88853
슬	-9.8907
▁섭취	-9.89072
▁어떨	-9.89078
거울	-9.89106
▁런가	-9.8915
▁하였	-9.89175
▁없었어	-9.89195
▁불쌍하다	-9.89237
▁환경	-9.893
▁때리지	-9.89393
▁여유	-9.89484
들어서	-9.8974
▁확실	-9.89768
▁이런	-9.89963
▁도와주	-9.89991
▁쌍	-9.90053
▁듯	-9.9007
▁자전	-9.90079
▁하죠	-9.90226
▁좋아요	-9.9027
▁자신	-9.90371
▁없기	-9.90441
▁팩	-9.90457
▁전통	-9.90509
▁알려주	-9.9051
▁이쁜	-9.90537
겠니	-9.90593
▁불어	-9.90767
▁이러고	-9.90804
▁들어온	-9.90835
▁헤	-9.90881
채	-9.90945
▁웃	-9.90961
▁다행	-9.91055
꼬박	-9.9107
▁베	-9.91245
▁빌린	-9.91253
▁공기	-9.91274
짓	-9.91407
▁안되요	-9.91469
▁맞으면	-9.91592
▁어떡하	-9.91699
▁그러네	-9.91743
몰	-9.91786
▁필요없	-9.918
▁윽	-9.91819
▁아파서	-9.91949
▁멀	-9.91997
▁된거	-9.92008
퍼	-9.92145
▁안나	-9.92175
머리	-9.92219
▁가는데	-9.9227
▁정상	-9.9229
었어	-9.92451
줄래	-9.92679
▁이십	-9.92696
▁불렀	-9.92752
▁중요하	-9.92927
▁시오	-9.93037
▁바르	-9.93464
▁나눠	-9.9347
▁서야	-9.93487
▁아픈	-9.935
존	-9.93641
픔	-9.93786
져서	-9.93787
of	-9.93803
▁보여주	-9.93804
▁몰랐어	-9.93918
▁흠	-9.93962
▁긍	-9.93962
▁얌전	-9.9407
▁푸	-9.94087
▁안내	-9.94101
▁샌드	-9.94103
▁갔	-9.94114
▁프랑스	-9.94121
▁can	-9.94149
▁해서요	-9.94157
▁아메리카노	-9.94174
▁먹게	-9.94329
린다	-9.94336
▁급해서	-9.94397
▁치킨	-9.94477
C	-9.94502
▁중요해	-9.94532
▁뭐라구요	-9.94534
▁쯧	-9.94538
룹	-9.94587
▁여기는	-9.94605
▁생겼는데	-9.94631
▁마시	-9.94685
▁하지말라고	-9.94761
▁깔끔하	-9.94772
▁알았	-9.94888
래요	-9.94898
는것	-9.94899
▁민주	-9.94903
▁기한	-9.9493
▁심하잖아	-9.94943
▁해보고	-9.94951
▁가입	-9.94968
▁필요없어	-9.95056
▁경기	-9.95063
▁슬	-9.95103
▁똥	-9.95131
▁대출	-9.95235
▁차가	-9.95268
▁기다리고	-9.95531
▁않으	-9.95556
▁생겼	-9.95697
▁하던가	-9.95703
너	-9.95752
▁만나는	-9.9579
▁죄송하다	-9.96011
2	-9.9611
는건	-9.96128
▁깨끗	-9.9618
왕	-9.96251
▁교통	-9.96361
▁피하	-9.96449
F	-9.965
▁움직이	-9.96563
가서	-9.96677
▁담아	-9.96712
이는	-9.96773
▁없는거	-9.96813
▁가까	-9.96861
▁움직	-9.96902
▁먹기	-9.96909
하는	-9.96931
▁차렸	-9.9694
▁an	-9.97135
거아니야	-9.97155
▁넘겨	-9.9721
5	-9.97226
▁요리	-9.97263
▁네	-9.97323
돌	-9.97331
죽	-9.9734
줘요	-9.97457
▁놀려	-9.97496
▁나누	-9.97634
▁사야	-9.97721
▁보내주	-9.97765
▁넣	-9.97783
▁죄송하	-9.97854
엄마	-9.97892
▁요구	-9.97897
▁하든	-9.98379
람	-9.98556
▁돼서	-9.98586
▁s	-9.98774
냥	-9.98779
▁만나면	-9.98799
▁다녔	-9.98946
▁않겠어	-9.99007
▁지식	-9.99125
▁미안하	-9.99164
▁굳	-9.99219
▁깡	-9.99219
▁측	-9.99288
▁냅	-9.99304
▁녹음	-9.99358
▁운영	-9.99372
▁어깨	-9.99379
느라	-9.99382
▁초등학	-9.99386
▁일어날	-9.9939
▁맡겨	-9.99427
▁야해요	-9.99444
▁이뻐	-9.99478
▁조심해라	-9.99579
▁취업	-9.99656
▁화나게	-9.99679
▁보내는	-9.99692
▁대상	-9.99759
▁뉴	-9.99809
▁딱	-9.99855
▁부담	-9.99913
▁김영	-9.99921
리면	-9.99975
▁만만해	-9.99996
▁혜	-10.0001
▁복사	-10.0003
▁물어봐	-10.0014
▁짜증나네	-10.0016
▁비싸게	-10.0021
▁보증	-10.0021
▁기획	-10.0023
▁남은	-10.0027
▁됐는데	-10.0039
▁다른데	-10.0042
찰	-10.0044
▁죽이는	-10.0054
▁특별	-10.006
▁모르나	-10.006
▁친한	-10.0062
▁뚱뚱하	-10.0067
▁완	-10.0067
▁종이	-10.0073
▁배신	-10.0074
ion	-10.0076
▁잘난	-10.0078
▁게이	-10.0087
▁안통	-10.0095
김	-10.0095
▁지나치	-10.0096
▁도와줄	-10.0099
▁들었	-10.0105
가락	-10.0111
▁튀	-10.0122
척	-10.0126
드리고	-10.0131
▁유명	-10.0143
▁있겠어	-10.0148
▁쓸게	-10.0151
▁하셨어요	-10.0155
▁묻	-10.0166
▁이든	-10.0176
평	-10.0188
충	-10.0202
줄거야	-10.021
▁징	-10.0212
나라	-10.0213
▁닮	-10.0215
▁있니	-10.0216
▁듣는	-10.0221
▁없게	-10.0222
▁예쁘	-10.0226
플	-10.0228
줘라	-10.0228
▁예쁜	-10.0231
징	-10.0241
▁상관없	-10.0248
vid	-10.0255
▁할지	-10.0261
▁곡	-10.0265
r	-10.0276
못	-10.0277
▁숨	-10.0282
▁미안해요	-10.029
왜	-10.0291
▁것	-10.0293
맥	-10.0294
주고	-10.03
▁그러시	-10.0301
버려	-10.0309
▁드려	-10.0318
▁괴롭혀	-10.0323
▁먹자	-10.0337
▁터	-10.034
▁최고	-10.0354
▁옥	-10.0358
▁힘들어서	-10.0363
▁내려가	-10.0371
▁해보자	-10.0372
▁석	-10.0377
▁만날	-10.0378
▁뭐라고요	-10.0388
까지	-10.0403
▁준거	-10.0404
▁계시	-10.0406
텐	-10.041
▁났어	-10.0411
▁시켰	-10.0419
▁침	-10.0426
▁난리	-10.0443
▁예뻐	-10.045
▁쫄	-10.0453
▁밝	-10.0453
럭	-10.0455
밍	-10.0461
거예요	-10.0463
▁중이	-10.0464
▁다닌다	-10.0469
▁봤다	-10.0474
▁m	-10.0474
▁갈까	-10.0476
▁꿇	-10.0477
▁샐	-10.0477
▁들어간	-10.0478
▁P	-10.0482
▁000	-10.0487
▁찾는	-10.0488
▁아껴	-10.0489
▁가끔	-10.049
▁이탈리아	-10.0495
▁교환	-10.0495
▁언론	-10.0499
▁있을거	-10.0499
▁국민	-10.0501
▁그만하자	-10.0507
▁영업	-10.0507
▁신청	-10.0508
▁생명	-10.051
▁버릴테니까	-10.0511
▁인스타	-10.0514
아오	-10.0517
▁해주셔야	-10.0522
▁국제	-10.0523
▁걸레	-10.0524
사랑	-10.0525
▁보내줘	-10.0528
▁성과	-10.0529
▁새꺄	-10.0531
1	-10.0532
▁해야하는	-10.0534
▁고치	-10.0556
▁먹는거	-10.0558
▁있었습니다	-10.0563
▁선수	-10.0568
▁굴어	-10.0577
▁해오	-10.0578
막	-10.0587
▁있거든	-10.0592
▁보낸	-10.0592
드려요	-10.06
▁따야	-10.0618
▁영어	-10.0625
▁할것	-10.065
▁그만해라	-10.066
▁잊었	-10.0665
겨	-10.0666
▁케이	-10.0666
▁많잖아	-10.0671
▁송	-10.0673
▁가겠습니다	-10.0681
▁않았어	-10.0688
▁넘기	-10.0691
어리	-10.0695
▁신중	-10.0702
▁드리면	-10.0716
뜨려	-10.0729
▁비상	-10.0734
▁해봤	-10.0737
▁기다리	-10.0742
▁재미없	-10.0742
▁줬으면	-10.0745
al	-10.0749
▁했니	-10.0759
▁관광	-10.0761
▁먹어서	-10.0765
▁해볼까	-10.0776
▁갖	-10.0777
▁싫은	-10.0784
어진	-10.081
▁말씀드리	-10.0821
▁맡	-10.0822
▁믿을	-10.083
N	-10.0832
▁벗	-10.0855
▁그만둬	-10.0857
ing	-10.086
▁시키지	-10.0862
하는데	-10.0862
케이	-10.0885
▁짐	-10.089
▁어려	-10.089
for	-10.0894
▁미루	-10.0894
P	-10.091
▁15	-10.0917
▁무섭	-10.092
▁육	-10.0925
▁높	-10.0927
되는거지	-10.0932
▁중개	-10.0937
있습니다	-10.0938
▁주기	-10.0938
▁맞았	-10.0944
▁지나면	-10.0944
교육	-10.0963
▁G	-10.0965
▁원하시는	-10.0967
▁오겠습니다	-10.0998
▁일인	-10.1
▁덩	-10.1008
▁지키	-10.1008
▁빌려주는	-10.1011
▁들을	-10.1012
▁기는	-10.1022
뇨	-10.1028
끼	-10.1039
▁어쨌	-10.1048
옛	-10.1049
폼	-10.1049
휠	-10.1049
▁놀아	-10.106
▁읽	-10.1064
곤	-10.1075
▁법률	-10.1076
▁하는거지	-10.1076
▁드리는	-10.109
▁알았어요	-10.1091
▁방향	-10.1093
▁차렸네	-10.1097
▁죽이	-10.1098
▁간호	-10.1099
▁톡	-10.1099
▁시키면	-10.11
▁때리지마	-10.1102
▁대기	-10.1102
유럽	-10.1105
너지	-10.1106
▁설치	-10.1108
▁지우	-10.1122
▁가져오라고	-10.1129
▁어때서	-10.113
on	-10.1137
▁정신차리지	-10.1143
▁드라	-10.1146
▁지시	-10.1146
▁했어야지	-10.1147
▁맞죠	-10.1152
▁다녀오	-10.1153
▁보이는데	-10.1157
▁맞는다	-10.1165
▁시도	-10.1176
▁차리	-10.1177
험	-10.1179
▁어린이	-10.1183
▁헤어질	-10.1189
▁안좋아	-10.1196
▁깜	-10.1198
▁주신	-10.1203
▁치는	-10.1203
▁들리	-10.1208
▁하다가	-10.1213
▁꼬리	-10.1232
▁갈게요	-10.1237
▁오백	-10.1243
▁많은데	-10.1256
십시오	-10.1257
▁안좋	-10.1267
▁갚는다	-10.1268
▁드릴께요	-10.127
▁할말	-10.1277
▁부족한	-10.1306
▁그러지말	-10.1306
▁폐	-10.1313
▁끊어	-10.1318
▁좋다는	-10.132
▁40	-10.1321
▁다녀와	-10.1322
▁받지	-10.1323
▁놀이	-10.1333
▁없으면서	-10.1346
▁줬는데	-10.1351
스터	-10.1353
▁이병	-10.1357
▁힘드	-10.1368
▁좋아	-10.1383
▁솔직하	-10.1388
아지	-10.139
▁살려줄	-10.1401
▁너무하다	-10.1412
▁당해	-10.1414
▁들었는데	-10.142
▁되잖아요	-10.1425
▁하시는거	-10.1451
▁다니고	-10.1455
▁죽겠	-10.1458
검	-10.146
▁들으	-10.1463
거잖아	-10.1479
▁돌려주	-10.1481
고요	-10.1483
하기	-10.1497
▁아마	-10.1551
▁율	-10.1569
▁그런거야	-10.1571
▁그러시는	-10.1575
픽	-10.159
▁해고	-10.1592
▁씹	-10.1594
틱	-10.1595
애인	-10.1598
쿠	-10.1611
▁지나가	-10.1614
▁답답해	-10.1623
셀	-10.1632
▁다니는거	-10.1643
▁괴롭히는	-10.1649
▁16	-10.1651
▁만들어줄	-10.1653
O	-10.1663
▁틀린	-10.1664
꽉	-10.1674
턱	-10.1674
팥	-10.1674
▁곱	-10.1678
▁컸	-10.1689
▁봉	-10.1696
▁빠른	-10.1699
▁붙여	-10.1702
▁커뮤니	-10.1704
▁쳐다봐	-10.1705
▁어울린다	-10.1709
슈	-10.171
▁미치	-10.1711
▁택	-10.1715
▁끝날	-10.1717
▁쪽팔려	-10.1719
리세	-10.1722
▁붙잡	-10.1723
프트	-10.1725
▁고맙다	-10.1727
▁않겠습니다	-10.1728
되니까	-10.1735
▁뇌	-10.1736
▁재수없	-10.1738
▁부자	-10.1738
십니다	-10.174
▁해보라고	-10.1746
▁생겼냐	-10.1748
▁오른	-10.1749
▁그만해줘	-10.1751
▁중심	-10.1753
▁합시다	-10.1755
▁빡치	-10.1763
는가	-10.177
▁폭발	-10.1771
▁쓴다고	-10.1774
거면	-10.1776
▁해놓	-10.1783
▁댓	-10.1785
▁사와라	-10.1786
▁먹었어	-10.1795
▁국밥	-10.1803
하다	-10.1805
▁먹으라고	-10.1814
▁아니라는	-10.1814
▁되냐	-10.1819
지고	-10.1826
▁듣지	-10.1827
▁그만하고	-10.1829
▁디	-10.1838
▁좋잖아	-10.1838
▁죽는거	-10.1849
▁썼어	-10.1855
수가	-10.1857
럽	-10.1859
뭐	-10.1863
▁모르겠는데	-10.1865
▁맥	-10.1865
▁다녀야	-10.187
▁배운	-10.1888
▁될거야	-10.1891
▁낮	-10.1904
▁찬	-10.1914
▁예정	-10.1917
▁in	-10.1918
▁너무해	-10.1921
▁거든	-10.1922
▁만으로	-10.1929
▁가능하	-10.1932
▁즐기는	-10.1932
▁붙이	-10.1934
▁줬다	-10.1937
취	-10.194
▁마셔	-10.1947
▁좋네	-10.1948
하니	-10.1949
주셨어	-10.196
▁귀찮	-10.1962
▁답답하	-10.1967
퇴	-10.1969
▁만났	-10.1981
▁고소	-10.199
▁있는건	-10.1991
▁그럴게	-10.1992
▁많다	-10.2
▁C	-10.2007
▁벼	-10.2007
▁그랬잖아	-10.2011
해야	-10.2036
▁하시죠	-10.2049
▁없었	-10.2055
▁주셔야	-10.2064
▁나무	-10.207
부러	-10.2073
▁잡고	-10.2088
▁찌르	-10.209
▁놓	-10.2091
▁손해	-10.2106
▁놓으	-10.211
▁억	-10.211
▁찌질	-10.2116
▁혼나	-10.2123
▁왔습니다	-10.2126
누	-10.2133
▁피아	-10.2137
앞	-10.2161
오냐	-10.2162
▁하기는	-10.2177
탈	-10.218
덕	-10.2189
숙	-10.219
이야	-10.2194
▁시장	-10.2196
축	-10.2211
라지	-10.2228
▁B	-10.2229
▁배워	-10.2235
기로	-10.2244
▁마시면	-10.2249
▁케	-10.2256
▁하래	-10.2259
압	-10.2269
▁잊	-10.2271
▁알겠	-10.2279
▁시킬	-10.2285
블	-10.2287
밖에	-10.2297
리기	-10.2301
▁고쳐	-10.2314
▁E	-10.2319
▁났	-10.2336
켓	-10.2337
률	-10.2339
댁	-10.234
바이러스	-10.2341
학교	-10.2351
▁않기	-10.2364
▁포켓몬	-10.2369
▁바이오	-10.237
▁육아	-10.2372
▁갑시다	-10.2373
▁역겨워	-10.2375
▁어이없네	-10.2376
하던데	-10.2378
▁뿌려	-10.2378
▁체크	-10.2379
▁버릴꺼야	-10.2379
▁거슬리	-10.238
▁따라하지마	-10.2381
▁받아들이	-10.2382
릴라	-10.2383
콜라	-10.2386
▁연기	-10.2386
▁받았습니다	-10.2395
▁그렇구나	-10.2396
▁걸리	-10.2399
▁빌리자	-10.2399
▁어쩐지	-10.2403
▁봄	-10.2405
▁펜	-10.2405
▁아버	-10.2409
▁죽여줄게	-10.2415
▁최소	-10.2419
▁더러운	-10.2425
▁부족해서	-10.2425
▁예쁘게	-10.2428
▁사라져	-10.2431
▁갔다와	-10.2432
▁버릴거니까	-10.2435
▁사냐	-10.2438
▁억지	-10.2439
라고요	-10.2439
▁무리	-10.2458
▁모르지	-10.2459
▁나왔어	-10.246
is	-10.2463
▁갈래	-10.2466
▁이쁘게	-10.2467
▁찾아보는	-10.247
▁유치	-10.247
▁불편한	-10.248
▁적은	-10.249
▁철학	-10.249
▁고구	-10.2494
▁허리	-10.2503
▁핵	-10.2511
하거	-10.2512
▁기절	-10.2515
▁봐주	-10.2516
▁될거	-10.2523
▁끝내고	-10.2527
▁죽었다	-10.2535
▁뽑	-10.2545
▁알겠다	-10.2549
주는	-10.2552
▁나온다	-10.2557
▁속이	-10.2559
▁고맙	-10.2575
▁나오지	-10.2577
▁김사	-10.2579
▁생리	-10.2582
▁비트	-10.2582
▁어딨어요	-10.2583
▁되니	-10.259
라니까	-10.2603
▁이만	-10.2608
ation	-10.2609
▁공공	-10.2626
는거에요	-10.2632
▁뜯	-10.2636
▁가져왔어	-10.2639
▁그럼	-10.2643
▁발라	-10.2645
▁견	-10.2647
▁늦어	-10.2653
▁되었다	-10.2656
▁하셔야	-10.2658
▁알면서	-10.266
▁되서	-10.2673
▁따르	-10.2676
▁받았어	-10.2679
싶다면	-10.268
진다	-10.2685
▁있으면서	-10.2687
▁처방	-10.2695
▁할테니	-10.2698
▁보겠습니다	-10.2721
▁부족하	-10.2725
▁도와줘	-10.2737
▁생겨	-10.2745
열	-10.2749
▁세우	-10.275
▁H	-10.2752
▁알아야	-10.2752
관계	-10.2766
▁오세요	-10.2771
▁짧	-10.2775
▁제도	-10.2778
▁지나가는	-10.2779
▁콘	-10.2781
▁찾아보	-10.2788
▁18	-10.2803
▁이었어	-10.281
▁사준	-10.2818
▁훔쳐	-10.2819
▁찌	-10.2858
▁R	-10.2859
▁무사하	-10.2867
▁띄	-10.2889
측	-10.2894
▁빠졌	-10.2899
▁서해	-10.2909
싶나	-10.2909
▁기어	-10.292
아요	-10.2923
시길	-10.2936
▁골라	-10.294
팔	-10.2941
▁냈	-10.2944
커	-10.296
S	-10.2962
▁하셔	-10.2964
▁무사할	-10.2968
▁태어나	-10.2974
▁웃긴	-10.2997
떼	-10.2998
▁갔어	-10.3013
▁되겠	-10.3016
랄	-10.302
릅니다	-10.303
쇼	-10.303
봇	-10.3055
슨	-10.3055
촬	-10.3055
▁빌려가	-10.3055
▁갤	-10.3068
▁쫌	-10.3068
▁불편해	-10.307
▁들어왔	-10.307
▁홀	-10.3074
▁흡연	-10.3077
▁속도	-10.3077
▁먹여	-10.3081
▁완료	-10.3083
▁have	-10.3085
▁어울려	-10.3086
▁되겠어	-10.3089
▁감옥	-10.3091
▁건너	-10.3091
봐	-10.3092
▁갚겠습니다	-10.3092
▁정당	-10.3094
▁시켜줘	-10.3097
▁낸다	-10.31
▁법적	-10.3102
▁좋겠습니다	-10.3106
▁갚으면	-10.3112
▁행복한	-10.3113
▁짧은	-10.3113
▁끊	-10.3115
▁십만원	-10.3117
▁성형	-10.3117
▁구경	-10.3118
▁떨어졌	-10.3118
▁왔다	-10.3118
▁억울하	-10.3118
▁데려다	-10.3118
▁초대	-10.3118
▁보내줄	-10.3119
▁몽	-10.3121
▁살리고	-10.3122
▁시청	-10.3123
▁싶습니다	-10.3123
▁우습냐	-10.3124
▁어딨냐	-10.3125
▁나오고	-10.3125
▁끝내자	-10.3128
▁예산	-10.3128
훈	-10.3139
▁멋있	-10.314
▁버리는	-10.3141
▁앉	-10.3143
▁뒤진다	-10.3144
▁풀어줘	-10.3144
하란	-10.3154
싱	-10.3159
▁있었어	-10.3164
장애	-10.3164
▁난다	-10.3168
▁안녕히	-10.3169
▁진정하	-10.3185
쳐서	-10.3186
간다	-10.3207
겠다는	-10.3215
▁않았나	-10.322
▁헤어졌	-10.322
▁해주실	-10.3232
나서	-10.3233
▁생각나	-10.3238
▁플	-10.3242
▁없을까	-10.3247
▁였어	-10.326
▁면서	-10.3273
▁하는것	-10.3274
▁미스	-10.3277
▁하겠네	-10.3278
▁남겨	-10.3281
▁없던	-10.3283
▁만나자	-10.329
바이	-10.3293
▁햇	-10.3294
▁융	-10.3294
▁헤어지고	-10.3295
▁쓰지	-10.3305
▁좋냐	-10.3313
▁뛰	-10.3327
▁나갔	-10.3332
▁즐거	-10.3372
▁바꿀	-10.3376
잘	-10.3379
▁나가고	-10.3389
▁빡	-10.3396
였으면	-10.3415
▁붙	-10.3419
▁잇	-10.3423
8	-10.3424
▁쓴다	-10.3428
▁말던가	-10.3432
▁애기	-10.3447
어야지	-10.3448
▁기계	-10.345
▁품	-10.3465
▁냉	-10.3469
th	-10.3476
▁갈거야	-10.3481
▁199	-10.3482
▁당하고	-10.3491
▁죽을	-10.35
▁마실	-10.3502
▁기다리는	-10.3503
▁중요하지	-10.3506
자리	-10.3522
0	-10.3541
▁불쌍	-10.3557
▁바다	-10.3561
▁불안	-10.3577
▁겨	-10.3594
▁보러	-10.3597
▁쳐다보	-10.3602
길동	-10.3606
▁지나	-10.3623
을래	-10.3628
▁올라	-10.3632
널	-10.3633
▁달려	-10.365
▁F	-10.3657
▁끝난	-10.3682
▁했다는	-10.3686
▁넘어	-10.37
▁너무한	-10.3706
드릴게요	-10.3709
최	-10.3712
▁가던	-10.3714
▁하더라	-10.3736
▁야할	-10.3738
공원	-10.3739
▁갚았	-10.3741
르기	-10.3744
▁된다면	-10.3747
줄께	-10.3748
▁가봐야	-10.3753
깝	-10.3768
▁하겠다는	-10.3778
▁갖다	-10.3787
▁아까워	-10.3792
▁따뜻한	-10.3796
l	-10.3818
▁안에	-10.3823
뽕	-10.3824
컬	-10.3824
톱	-10.3824
▁녹	-10.383
▁환장했	-10.3832
▁재밌어	-10.3834
▁박혀	-10.3835
▁뭣	-10.3836
▁빚	-10.3836
▁쏘	-10.3836
껄	-10.3841
▁꿀꿀	-10.3845
▁커플	-10.3847
▁우스워	-10.385
▁살아갈	-10.3855
▁심하시네요	-10.3857
시지	-10.3858
필	-10.386
▁나와야	-10.3862
▁데려와	-10.3862
싶냐	-10.3863
▁보험	-10.3864
▁쓰겠습니다	-10.387
▁돕고	-10.387
덩	-10.3879
▁알려진	-10.388
▁어쨌다	-10.3885
▁쉬운	-10.3886
▁프로그래	-10.3886
▁불량	-10.3886
휘	-10.389
얼	-10.3892
▁어쩌려	-10.3895
▁대들어	-10.3898
▁캐나	-10.3901
▁나름	-10.3911
▁이러는거야	-10.3912
▁개그	-10.3916
▁예민하	-10.3916
▁믿어줘	-10.392
▁미친것	-10.3923
▁말씀드렸	-10.3924
범위	-10.3929
털	-10.3931
▁힘든데	-10.3932
찌	-10.3933
▁웃어	-10.3934
▁알았지	-10.3937
▁wi	-10.3938
했어	-10.3938
하지만	-10.3945
▁강제	-10.3947
▁죄송하다고	-10.3948
혈	-10.3958
▁한글	-10.396
▁꺼져라	-10.3964
▁검정	-10.3967
▁놀고	-10.3974
▁단순	-10.3975
▁늦었어	-10.3981
▁찾아와	-10.3987
▁짖	-10.3987
▁아니네	-10.3987
▁M	-10.3989
학생	-10.3995
▁일일	-10.3997
▁가보	-10.3997
▁보냈	-10.3998
▁민우	-10.4
있는데	-10.4005
▁이러다	-10.4012
▁내부	-10.4015
▁만들어줘	-10.4018
구려	-10.4023
▁과학	-10.4029
▁밀어	-10.4037
▁범	-10.4037
▁위험해	-10.4038
▁찾아봐	-10.4042
▁갚아야	-10.4045
▁줬어	-10.4046
▁폭행	-10.4058
왔냐	-10.4073
▁루	-10.4083
▁페	-10.4088
▁떄	-10.4088
▁그래야	-10.4095
▁진지	-10.4101
바른	-10.4101
▁박대	-10.4103
▁우주	-10.4108
▁드려야	-10.411
▁치우	-10.413
▁불쾌	-10.4131
▁as	-10.414
▁할께요	-10.415
▁김치	-10.4165
▁조용	-10.4173
을텐데	-10.4174
▁가자고	-10.4186
▁do	-10.4198
▁있던데	-10.4199
▁걷는	-10.4201
▁훼	-10.4207
▁심하신	-10.4219
▁다니기	-10.4226
▁자연스	-10.423
▁않네	-10.4231
▁모르면	-10.4244
▁조약	-10.4254
시고	-10.4254
▁안되겠어	-10.4265
▁헌	-10.427
▁갈아	-10.4275
▁않는다	-10.4282
▁마시는	-10.4286
▁안되서	-10.4304
▁깐	-10.4304
▁피곤하	-10.4305
9	-10.4311
▁사물	-10.4312
▁노인	-10.4315
▁가나	-10.4348
▁가져왔	-10.4374
▁13	-10.4376
▁가려고	-10.4389
다리	-10.4414
▁때리고	-10.4422
▁용기	-10.443
▁않아서	-10.4444
▁부를	-10.4455
▁연결	-10.4467
▁놀다	-10.447
▁입어	-10.4473
▁버렸	-10.4474
▁지적	-10.4483
▁얻어	-10.4508
▁살라	-10.4513
▁죽였	-10.4513
▁성공	-10.4513
졌습니다	-10.4522
▁튀어	-10.4527
▁지르	-10.453
킬	-10.453
려나	-10.4532
▁가능할	-10.4537
▁적어	-10.4547
른	-10.4548
▁틀린말	-10.4566
▁했으니	-10.4568
▁휘	-10.4586
시네요	-10.4589
▁당할	-10.4593
▁흔	-10.4598
▁만만하	-10.4607
▁키워	-10.4608
▁다치	-10.461
▁떨어진	-10.4615
▁주인	-10.4626
▁순진	-10.4628
▁앨	-10.4632
랫	-10.4633
둥	-10.4639
있는	-10.4643
▁뒤지고	-10.4643
지를	-10.4645
틴	-10.4657
겐	-10.4657
깟	-10.4657
략	-10.4657
샘	-10.4657
숭	-10.4657
웩	-10.4657
쫙	-10.4657
혐	-10.4657
ext	-10.4659
▁생길	-10.466
▁옮겨	-10.466
▁될지	-10.4661
▁상하	-10.4664
▁화나	-10.4664
▁풉	-10.4668
▁햄	-10.4668
▁가져올	-10.4673
▁뺏어	-10.4674
▁빠듯	-10.4678
▁떨	-10.4679
▁자릿세	-10.4682
▁오징어	-10.4682
▁찌른다	-10.4682
▁해볼	-10.4683
▁당뇨	-10.4683
▁모욕	-10.4683
▁춤	-10.4685
▁잘쓸게	-10.4686
▁2000	-10.4692
▁조져	-10.4693
평가	-10.4693
▁부럽다	-10.4695
▁오타	-10.4695
▁주둥	-10.4696
▁너무하시네요	-10.4697
▁펴	-10.47
▁해주십시오	-10.4702
▁보고싶어	-10.4703
▁비슷한	-10.4708
▁그러겠습니다	-10.4709
▁가도	-10.471
▁부탁드려요	-10.4712
▁졸라	-10.4715
▁가져갈게	-10.4715
▁따가	-10.4717
맹	-10.4719
▁그야	-10.4722
▁됐잖아	-10.4722
▁특별한	-10.4722
▁정신병	-10.4724
스타	-10.4725
▁땀	-10.473
▁짬	-10.473
▁부셔	-10.4736
▁조각	-10.4736
▁했더니	-10.4737
▁심한거	-10.4739
▁해달라	-10.4743
▁희망	-10.4746
갑니다	-10.4747
깔	-10.4754
▁아까워서	-10.4757
▁생겼네	-10.4759
▁만화	-10.4762
▁그럴게요	-10.4767
E	-10.4767
하나	-10.4771
▁여름	-10.4771
G	-10.4777
▁막혀	-10.4781
▁사줄게	-10.4782
▁첨	-10.4798
▁할께	-10.4801
웨	-10.4801
▁알았는데	-10.4802
▁들어와서	-10.4813
▁껴	-10.4814
▁다녀라	-10.4819
▁가져가면	-10.4831
▁불편해서	-10.484
▁어처	-10.484
▁차리지	-10.4841
▁중요하다	-10.4845
▁성의	-10.4847
르고	-10.4854
▁같네요	-10.4855
▁저작	-10.4856
낄	-10.4872
▁알아라	-10.488
▁한적	-10.4887
▁입어보	-10.4888
▁이어	-10.4894
▁해외	-10.4895
▁싶으	-10.4911
▁해봐라	-10.492
▁걸려	-10.4927
▁편지	-10.4931
▁바라	-10.4935
▁다니는데	-10.4944
▁짱	-10.4947
▁작작	-10.4947
▁뜨고	-10.4958
▁깍	-10.4965
▁나아가	-10.4966
▁노동	-10.4976
▁여기	-10.4999
▁너	-10.5001
있어요	-10.5008
▁풀어주	-10.5014
▁온거	-10.5017
▁떠나	-10.5018
▁헤어지는	-10.5023
▁되겠다	-10.5032
신다면	-10.5041
▁우수	-10.5042
▁N	-10.5045
했고	-10.5045
▁등급	-10.5046
▁수면	-10.5059
▁안된	-10.5063
다니	-10.5064
으니	-10.5068
▁보여줘	-10.507
▁이구나	-10.5075
▁웃기는	-10.5077
▁같으	-10.5079
▁알고있	-10.5081
▁지마	-10.5086
▁있었는데	-10.509
▁신용	-10.5096
▁고요	-10.5101
이크	-10.5108
▁스토	-10.5111
겠네요	-10.5133
▁신분	-10.514
▁프	-10.5147
▁하아	-10.5148
▁텐데	-10.5149
▁어쩌다	-10.5158
▁비워	-10.5159
▁어떤	-10.5162
▁걸릴	-10.5174
▁쑤셔	-10.5177
6	-10.5177
▁나아	-10.518
▁퍼	-10.5184
▁받으려	-10.5197
▁웃으면	-10.522
▁그렇잖아	-10.5224
꾸	-10.5255
▁헤어진	-10.5263
▁컵	-10.5279
▁버려야	-10.5293
▁온다	-10.5307
▁어떡할	-10.5314
▁도구	-10.5336
▁깜빡	-10.5344
▁맡아	-10.5347
▁헛	-10.5348
▁올리는	-10.5358
볼게요	-10.5359
▁명확하	-10.5369
3	-10.5371
▁나쁘다	-10.5374
왔네	-10.538
▁해본	-10.5381
데이	-10.5383
▁달이	-10.5427
▁썼다	-10.5452
▁무기	-10.5461
▁엿	-10.5468
런	-10.5474
혼	-10.5478
▁맞으	-10.5481
▁군사	-10.5492
▁보자고	-10.5512
느	-10.5512
▁였습니다	-10.5524
▁해봐야	-10.5528
▁어쩐	-10.5538
올	-10.5542
▁살았	-10.5544
하잖아	-10.5545
g	-10.5554
▁붙어	-10.5559
어트	-10.556
▁이겨	-10.5561
▁좋겠네	-10.5563
▁나간	-10.5564
▁만드는	-10.5564
▁쏠	-10.5566
넨	-10.5566
릭	-10.5566
샵	-10.5566
썹	-10.5566
▁아니거든	-10.557
▁껌	-10.5576
▁대다	-10.5578
▁실망	-10.5584
▁유튜	-10.5585
는걸	-10.5587
▁지겨워	-10.5589
▁베트남	-10.5589
▁아름다	-10.5589
▁버리겠다	-10.559
▁독립	-10.559
▁채워	-10.5592
▁cont	-10.5592
▁멋대로	-10.5593
▁움직여	-10.5596
▁모릅니다	-10.5601
ry	-10.5603
▁건드려	-10.5603
▁어플	-10.5604
▁높습니다	-10.5604
▁데리러	-10.5607
▁뿐입니다	-10.5608
▁늦은	-10.5609
▁들어갔	-10.5611
▁명예	-10.5612
▁웃기지마	-10.5614
▁엘	-10.5619
▁애플	-10.562
▁난쟁	-10.5621
▁만만하냐	-10.5622
▁뭐라는거야	-10.5626
▁지나간다	-10.5626
▁개판	-10.5628
▁불쌍해서	-10.5628
▁진정하시고	-10.5629
▁출발	-10.5631
▁하셨는데	-10.5633
▁나머	-10.5636
▁임대	-10.5637
▁찾으	-10.5638
▁알아보	-10.5638
▁논리	-10.5641
▁끄	-10.5641
쉬	-10.5653
▁사례	-10.5653
▁안전하	-10.5654
▁잃을	-10.5654
▁저래라	-10.5657
광	-10.5667
▁무섭게	-10.5669
셨	-10.5669
계세	-10.5676
▁블	-10.568
더라구요	-10.5681
▁검은	-10.5683
▁버리겠어	-10.5686
▁모시	-10.5687
▁가져올게	-10.5691
▁안되겠	-10.5693
▁미쳤네	-10.5693
▁가져와라	-10.5697
▁돌아다니	-10.5701
싶으면	-10.5704
▁했으	-10.5706
▁있었네	-10.5709
으시면	-10.5718
▁디지	-10.5723
ever	-10.5725
▁좋겠어요	-10.5726
▁보낼	-10.5726
▁답답해서	-10.5731
▁먹을까	-10.5731
▁권한	-10.5735
주의	-10.5737
▁없어도	-10.5738
▁중간	-10.5742
▁시끄러워서	-10.5745
▁필요하신	-10.5748
▁제조	-10.5749
클	-10.5753
▁찍은	-10.5755
콩	-10.5758
▁조선	-10.5765
베	-10.5767
▁론	-10.5767
야겠어	-10.5769
소년	-10.5776
▁힘들다고	-10.5781
균	-10.5792
▁넣을	-10.5798
▁무서워서	-10.5802
▁갈수	-10.5804
▁즐기	-10.5805
쿵	-10.5807
▁따라가	-10.581
▁먹었다	-10.5814
볶	-10.5814
▁높이	-10.5815
▁17	-10.5816
거니까	-10.5817
▁않은데	-10.582
▁그런데	-10.5821
립니다	-10.5833
▁하겠어요	-10.5835
일이	-10.5838
▁기억나	-10.5851
▁시리	-10.5853
괴	-10.586
▁어떡	-10.586
▁따져	-10.5861
▁컨	-10.5868
한거	-10.5886
▁똑똑	-10.5896
▁없나요	-10.5901
▁겪	-10.5907
▁봐주면	-10.5911
▁먹은거	-10.5915
▁모르네	-10.5933
▁해줬	-10.5949
▁살려주	-10.5952
▁당하	-10.5958
▁쪽팔리	-10.596
7	-10.597
▁가는거	-10.5975
▁버리게	-10.5975
▁됐다고	-10.5982
▁계신	-10.5982
▁착한	-10.6002
을까	-10.6018
▁보내라	-10.6018
볼	-10.6026
▁터지	-10.6036
▁와야	-10.6037
▁빛	-10.6048
딸	-10.6054
▁하네요	-10.6062
▁비서	-10.6063
▁치냐	-10.6064
테니깐	-10.6075
▁닫	-10.6076
▁닦아	-10.6076
든가	-10.6086
▁되어야	-10.6089
▁해드리	-10.6099
▁괴롭히	-10.6105
▁수영	-10.6106
▁들어갈	-10.611
▁올릴	-10.6117
트리	-10.6119
▁먹어요	-10.6126
▁원하	-10.6133
▁성인	-10.6134
▁아끼	-10.6139
▁강화	-10.6152
▁먹이	-10.6173
▁낳고	-10.6175
졌어	-10.6187
▁적당	-10.6194
겠죠	-10.6197
을거	-10.6212
▁걸린	-10.6218
▁보는데	-10.622
▁중요	-10.6241
▁0	-10.6245
었나	-10.6246
▁봐줘야	-10.6262
▁터져	-10.6265
▁197	-10.6269
▁가해	-10.6288
▁볶	-10.6293
▁쓰려	-10.6298
▁k	-10.6301
▁아스	-10.6322
▁균	-10.6323
▁아끼는	-10.6331
▁둔다	-10.6335
▁있었으	-10.634
▁책임지	-10.6341
었어요	-10.6342
▁의지	-10.6345
▁들어왔어	-10.6348
▁했는	-10.6357
▁하려는	-10.6359
▁느끼지	-10.6369
▁지냈	-10.6369
▁꾸	-10.6381
▁모르겠네	-10.6393
▁맡기	-10.6397
줘야	-10.64
▁느끼는	-10.6402
리는	-10.6419
p	-10.6425
▁짠	-10.6426
▁굴	-10.6432
▁믿지	-10.6437
전에	-10.6454
▁알기	-10.6501
▁야하	-10.6507
▁참가	-10.6513
▁뺏	-10.6534
▁하겠지	-10.6544
것이지	-10.6546
픈데	-10.6552
▁홈	-10.6566
▁닭	-10.6566
▁꽂	-10.6566
▁왠	-10.6566
▁콱	-10.6566
▁탔	-10.6566
궈	-10.6566
팟	-10.6566
▁꼰	-10.6566
▁라이	-10.6569
▁어때	-10.6571
▁됩니	-10.6572
민주주의	-10.6572
▁뚱뚱한	-10.6573
▁아기	-10.6574
▁맞냐	-10.6576
▁훔친	-10.6583
▁던져	-10.6583
▁감염	-10.6585
▁꼬맹	-10.6585
▁꾸미	-10.6587
▁지하철	-10.6588
▁부드럽	-10.6588
▁어떠	-10.6589
▁찌를	-10.6589
▁늙은	-10.6592
▁너무하십니다	-10.6599
▁방탄	-10.6599
▁다녀오겠습니다	-10.6601
▁해줬더니	-10.6602
▁초과	-10.6603
▁주먹	-10.6604
▁사줬어	-10.6605
▁자존	-10.6606
▁치즈	-10.6606
▁책임질	-10.6614
▁모아	-10.6615
▁아시잖아요	-10.6618
▁출산	-10.6619
▁어려우	-10.6622
▁그리스	-10.6625
▁사먹을	-10.6626
▁않았습니다	-10.6627
▁둘거야	-10.6629
▁내려놓고	-10.6635
▁기스	-10.6645
▁뿌리	-10.6645
▁구조	-10.6651
▁빌려줄래	-10.6657
▁안전한	-10.6657
▁묶어	-10.6658
▁반려	-10.6662
▁쌀	-10.6665
▁호주	-10.6678
▁뒀	-10.6679
▁키웠	-10.6686
▁싸우	-10.6687
▁밀리	-10.6688
▁필요하다면	-10.669
▁내놓으	-10.6691
르면	-10.6693
가면서	-10.6695
▁해드릴게요	-10.6696
▁너무하세요	-10.67
▁픽	-10.6704
▁미안합니다	-10.6712
어도	-10.6719
▁프리	-10.672
험한	-10.6727
▁일러	-10.674
▁빌려줄게	-10.6742
▁빠진	-10.6748
▁나오라고	-10.6752
▁있긴	-10.6763
▁스카	-10.6763
▁뵈는	-10.6765
▁죽든	-10.6765
▁있겠	-10.6766
▁좀있	-10.6766
왔습니다	-10.677
▁이었습니다	-10.6771
▁아악	-10.6774
▁죄송하다면	-10.6774
▁않았는데	-10.6781
▁들을게	-10.6785
지말라고	-10.6791
D	-10.6793
▁멀쩡한	-10.6795
▁죽이면	-10.6796
▁되네	-10.68
▁하던지	-10.6801
▁솔	-10.6801
좋게	-10.681
▁사려	-10.681
▁지를	-10.6815
▁남았는데	-10.6827
▁모자	-10.6835
▁없죠	-10.6841
짐	-10.6848
▁부족	-10.6853
▁가져갔	-10.6856
▁경비	-10.686
▁받았으	-10.6866
▁듣네	-10.6873
▁죽었어	-10.6879
라구요	-10.688
▁서운하	-10.6881
컵	-10.6894
▁찾아오	-10.6896
룸	-10.6896
am	-10.69
끈	-10.6901
빙	-10.6901
야해	-10.6902
잇	-10.6909
깨	-10.6914
▁오지마	-10.6914
▁여기있어	-10.6922
▁입는	-10.693
▁놀라	-10.693
▁기네	-10.6936
▁무섭다	-10.6937
▁정규	-10.6939
le	-10.6941
▁적게	-10.6944
▁먹어야	-10.6948
▁아프다	-10.6951
▁많은거	-10.6952
궁	-10.6956
▁그럴수	-10.6957
▁K	-10.6958
▁가능하다	-10.6962
스코	-10.6968
▁위험	-10.697
▁만들고	-10.6971
인데요	-10.6979
▁말랬	-10.6991
▁할꺼	-10.6995
페이	-10.7009
▁불편하다	-10.7015
▁막아	-10.7016
을거야	-10.7017
▁지도	-10.7024
▁갔잖아	-10.7027
▁브라	-10.7028
▁하시지	-10.7031
▁싼	-10.7042
실까	-10.7042
시다	-10.7044
있게	-10.7048
겟	-10.7066
▁싫다는	-10.7069
▁이루어	-10.7071
말고	-10.7075
▁다닌	-10.7078
▁해야하는데	-10.7078
▁끌어	-10.7083
▁뚱뚱해	-10.7084
▁됬	-10.709
▁맛있어	-10.7093
인데	-10.7094
▁봤지	-10.7099
ch	-10.7114
▁미쳐	-10.7122
▁숨어	-10.7146
▁생긴거	-10.7159
▁편하	-10.7165
▁할줄	-10.7176
▁내려놓으	-10.7179
▁우울	-10.7184
▁만나기	-10.719
▁으아	-10.7202
▁불가	-10.7207
▁해주지	-10.7214
▁높아	-10.7228
▁시켜주	-10.723
▁벨	-10.7239
▁올게	-10.7239
▁걸렸	-10.7245
▁착하	-10.7246
▁정해	-10.7252
자나	-10.7259
주시	-10.7259
▁있으시	-10.727
새끼	-10.728
좋아서	-10.7283
▁드렸는데	-10.7293
▁만족	-10.7295
놈	-10.7299
밀	-10.73
▁찾았	-10.7306
▁맞네	-10.7307
▁늦었	-10.7312
ic	-10.7327
▁전교	-10.733
▁들어가는	-10.7332
▁뻔한	-10.7334
▁재미있	-10.7337
▁일수	-10.7341
ng	-10.7353
▁찍었	-10.7354
▁없다는	-10.7355
깐	-10.7363
▁행복하	-10.7364
▁사귀	-10.7368
▁닮았	-10.7372
▁핀	-10.7374
▁쿵	-10.7389
▁오셨	-10.7402
▁한다니까	-10.7407
▁밝히	-10.7412
▁만난	-10.7427
군요	-10.7441
▁아깝	-10.7449
▁비는	-10.7452
힌	-10.7452
많은	-10.7453
▁바뀌	-10.746
러지	-10.7464
▁있냐고	-10.747
▁5000	-10.7483
ul	-10.7487
하다고	-10.7492
거라고	-10.7497
▁드라이	-10.7498
있으면	-10.7499
▁기생	-10.7507
▁신데	-10.7521
▁소문났	-10.7523
ow	-10.7529
▁가져간	-10.7537
배상	-10.7559
▁부리	-10.756
▁이러는거	-10.7588
▁201	-10.7593
▁부르는	-10.7602
▁되어있어	-10.7612
다고요	-10.7613
▁아니구	-10.7613
▁사주신	-10.7615
▁만져	-10.7616
▁벽	-10.7619
▁없으시	-10.7626
▁맡았	-10.7646
오라고	-10.7647
▁빌릴	-10.7653
우스	-10.7653
▁상상	-10.7653
▁부족해	-10.7656
▁해올게	-10.7664
나가면	-10.7667
▁전학	-10.7668
▁괴롭	-10.7674
텨	-10.7675
▁횡	-10.7677
땜	-10.7677
뭡	-10.7677
믹	-10.7677
빽	-10.7677
쩜	-10.7677
탱	-10.7677
으로	-10.768
▁어쨋	-10.7692
▁굼벵	-10.7692
▁뜨겁	-10.7693
▁혈액	-10.7693
▁여깄	-10.7693
▁나빴	-10.7693
▁염색	-10.7694
었으면	-10.7695
▁삼백	-10.7696
▁전염	-10.7696
▁The	-10.7697
▁저렴	-10.7697
▁뜨거운	-10.7697
▁켜	-10.7699
▁페니키아	-10.7699
▁힘듭니다	-10.7699
▁곤란해	-10.77
▁오랫	-10.77
▁갈취	-10.7701
▁태양	-10.7701
▁영양	-10.7701
MV	-10.7702
▁왜그러는데	-10.7702
▁부드러운	-10.7702
▁지나치시네요	-10.7703
▁찾아보시	-10.7703
▁말씀드린	-10.7703
▁complet	-10.7703
▁살려주십시오	-10.7703
▁출판	-10.7706
▁이러십니까	-10.771
▁숙박	-10.7711
▁돌았나	-10.7713
▁믿어주세요	-10.7715
▁까라면	-10.7719
▁같으니	-10.7721
▁배울	-10.7726
▁플라	-10.7726
▁창의	-10.7727
▁생겼잖아	-10.7727
▁플레	-10.7727
되기	-10.7731
▁갚을께	-10.7732
▁챙기	-10.7734
▁남았	-10.7735
▁따라하지	-10.7739
▁T	-10.774
▁부끄럽지	-10.7743
▁하지말	-10.7745
▁없으세요	-10.7748
▁걸렸다	-10.776
▁도와줬	-10.776
▁글씨	-10.7762
끼리	-10.7766
▁벙	-10.7766
▁지겹다	-10.7768
▁허위	-10.7768
▁그럴까	-10.7771
▁립	-10.7778
▁빌어	-10.7778
▁배터	-10.7788
▁지워줘	-10.7791
▁쿠	-10.7793
▁그지같	-10.7796
▁있었던	-10.7799
▁같던데	-10.7799
▁아닌것	-10.7799
▁싶네	-10.7803
▁안되나요	-10.7804
▁탄	-10.7808
▁쎄	-10.7809
▁쉬어	-10.781
▁지났는데	-10.7811
▁유명해	-10.7822
▁해주셔	-10.7824
아야	-10.7826
▁학습	-10.7831
▁대드는	-10.7831
졌	-10.7832
▁위험한	-10.7838
▁죽으라	-10.7841
▁그런지	-10.7841
여행	-10.7843
▁들면	-10.7845
▁진실	-10.7845
▁월드	-10.7847
끝	-10.7848
기는	-10.7853
▁젓	-10.7859
▁앵	-10.7859
가는	-10.7859
▁소식	-10.786
▁행복	-10.7864
▁알겠냐	-10.7864
▁섭섭하	-10.7869
▁야하는거	-10.7874
▁내릴	-10.7874
▁티켓	-10.7879
▁봐줄	-10.7885
▁떨어져서	-10.789
봐야지	-10.7896
▁음주	-10.7901
▁있거	-10.7915
▁쓰자	-10.7918
▁소화	-10.7921
▁도망	-10.7923
▁죽어야지	-10.7926
▁시민	-10.7927
▁싸인	-10.793
▁맞고싶	-10.7931
▁모자라	-10.7932
▁넣었	-10.7934
▁해볼게요	-10.7936
▁따구	-10.7944
무지	-10.7947
겠습니까	-10.7949
▁헬	-10.7953
▁있다가	-10.7965
▁낳	-10.7966
ed	-10.7984
▁멀쩡하	-10.7993
▁갚으	-10.8001
▁똑같아	-10.8012
▁있다	-10.8013
▁보려고	-10.8014
힐	-10.8022
▁너무하네	-10.8025
▁유아	-10.8025
▁해줄래	-10.8027
▁아니고요	-10.8031
▁힘들거	-10.8032
▁내놓을	-10.804
▁받으시	-10.8043
▁지내고	-10.8045
▁웅	-10.8047
▁퉁	-10.8047
늘	-10.805
▁부시	-10.805
▁그랬는데	-10.8052
▁기다릴	-10.8057
▁돌려준다	-10.8062
▁상관없어	-10.8067
one	-10.807
▁나오냐	-10.8072
▁이길	-10.8073
▁싫다면	-10.8076
▁워크	-10.8077
힘	-10.8086
▁가주세요	-10.8087
곡	-10.8087
▁필요하다	-10.8094
▁가질	-10.8094
부모	-10.8103
B	-10.8112
콘	-10.8127
▁씻어	-10.8129
▁집어	-10.8132
▁탑	-10.8133
▁25	-10.8138
▁함께	-10.8151
빛	-10.8156
▁걸음	-10.8159
헤	-10.8163
▁불쾌해	-10.8165
▁복잡하	-10.8168
▁멍	-10.8171
▁주워	-10.8174
▁백만	-10.8191
▁있더라	-10.8212
▁이랬	-10.8229
되어서	-10.8232
대한	-10.8241
▁배고프다	-10.8242
▁부른	-10.8246
콜	-10.8247
하자	-10.8253
▁달렸	-10.8256
▁맞으시	-10.8257
▁가난하	-10.8262
▁보여줄	-10.8266
▁비야	-10.8275
▁뺐	-10.8283
▁끊을	-10.8284
▁동시	-10.8289
고싶어	-10.8293
▁모르겠지	-10.8297
▁기다려주	-10.83
▁지진	-10.8303
▁물리	-10.8329
▁배웠	-10.8345
▁주셨	-10.8345
▁멀쩡	-10.835
▁배고프	-10.8364
▁아닌지	-10.8379
▁없네요	-10.8387
00	-10.8389
▁안좋은	-10.8392
▁신기	-10.8392
▁벗겨	-10.8399
▁자기	-10.8401
▁쓰는데	-10.8418
들었습니다	-10.8432
▁죄송해	-10.8433
▁냈어	-10.8444
▁섞	-10.8472
it	-10.8488
▁늙어	-10.8491
▁갔는데	-10.8495
▁살고싶	-10.8495
▁내리	-10.8525
▁굶	-10.8527
▁알았다	-10.8541
▁끓	-10.8551
▁교도	-10.8562
▁내는	-10.8577
운데	-10.8602
▁나오는데	-10.8607
▁받아가	-10.8609
▁전화해	-10.8634
▁놀리는거	-10.8635
▁없다면	-10.8641
▁오시	-10.8643
▁살인	-10.8652
는거잖아	-10.8654
▁가스	-10.8654
▁하자는	-10.8678
▁태워	-10.8678
▁씻	-10.8681
▁익	-10.8707
▁먹는데	-10.871
▁본다	-10.8711
▁아플	-10.8716
▁마르	-10.8726
▁잡았	-10.873
▁어리	-10.8732
▁빌렸	-10.8736
▁쉽	-10.8749
▁수선	-10.8757
▁깔끔	-10.8773
▁나가야	-10.8776
몸	-10.8779
▁그려	-10.8802
▁다물	-10.8802
▁옮기	-10.8803
▁하고싶은	-10.8817
하여	-10.8841
▁저장	-10.8846
오든	-10.8852
이라	-10.8856
▁빠	-10.8859
녕	-10.886
난다고	-10.8862
▁않지	-10.8865
렁	-10.888
혹	-10.8905
닝	-10.8915
▁불쌍해	-10.8923
▁먹는다	-10.8924
뻑	-10.8925
▁역겨	-10.8927
▁뺀	-10.8927
▁덮	-10.8927
▁데뷔	-10.8927
▁뻥	-10.8927
▁엇	-10.8927
▁웬	-10.8927
▁탐	-10.8927
귤	-10.8927
잣	-10.8927
좆	-10.8927
▁슈퍼	-10.8928
▁눌러	-10.8928
OS	-10.8929
▁완벽	-10.8929
▁빼빼	-10.893
▁꺄악	-10.893
잡	-10.8931
▁해줄수	-10.8932
▁흉내	-10.8933
▁대륙	-10.8935
▁볶음	-10.8936
▁맡긴	-10.8939
▁밀린	-10.8941
▁카카오	-10.8944
▁푸하하	-10.8944
▁괴롭힐	-10.8944
▁싸이코	-10.8945
▁하느님	-10.8945
▁학폭	-10.8945
▁감사해요	-10.8948
▁버티	-10.8949
▁지나치십니다	-10.895
WI	-10.8954
▁기어오르네	-10.8955
▁할수있	-10.8955
▁뒤집어	-10.8955
▁조심하겠습니다	-10.8956
▁살펴보	-10.8958
▁괴롭히지마	-10.8962
▁알았으니까	-10.8962
▁보충	-10.8963
▁쓸데없	-10.8964
▁태어난	-10.8965
▁돌려줘야해	-10.8967
▁비키	-10.8968
▁소름	-10.8968
▁접근	-10.8968
▁나타나	-10.8972
▁풀어주세요	-10.8973
페이스	-10.8977
▁물어보세요	-10.8979
맨	-10.8988
▁존경	-10.8989
▁지쳤어	-10.899
▁헤어졌어	-10.8996
▁있겠지만	-10.8997
▁망신	-10.8999
▁내리라고	-10.9001
▁뒤질	-10.9006
▁예민해	-10.9009
▁샌	-10.9011
▁돌리	-10.9012
▁다쳐	-10.9013
▁가져가세요	-10.9015
▁보여줄게	-10.9016
있을	-10.9017
▁좋았잖아	-10.902
▁하다니	-10.902
▁심하겠습니다	-10.9021
▁띠	-10.9023
▁잤	-10.9024
▁싸워	-10.9025
▁예민한	-10.9026
▁반반	-10.9029
▁아픈데	-10.9029
▁차리겠	-10.9031
▁사다줘	-10.9032
았어	-10.9034
였습니다	-10.9035
▁24	-10.9038
▁호흡	-10.9039
▁놓치	-10.9046
▁스포츠	-10.9046
▁봅시다	-10.9046
▁국회	-10.9046
▁없거든	-10.9047
▁사망	-10.9051
▁뿌린	-10.9054
▁러	-10.9055
▁까지야	-10.9062
주려고	-10.9063
치기	-10.9065
셨는데	-10.9068
ll	-10.9069
▁없구나	-10.9071
▁쓰라고	-10.9072
▁도망가	-10.9073
▁항공	-10.9081
▁틱	-10.9093
▁말았어야	-10.9094
▁누워	-10.9098
▁갔다오면	-10.9099
▁정확하게	-10.9105
▁위험하	-10.9106
였어	-10.9109
▁죽고싶나	-10.911
▁괜찮을	-10.9113
▁찍었어	-10.9114
▁귀찮아	-10.9115
▁기념	-10.9116
▁해놨어	-10.9126
a	-10.9129
▁있었다고	-10.913
▁폴	-10.913
▁보내야	-10.9133
▁입었	-10.9148
▁대형	-10.9149
▁입냄새	-10.9161
▁해보자고	-10.9164
▁버려야겠	-10.9167
▁굶어	-10.9171
▁이쁘고	-10.918
▁지리	-10.9181
청구	-10.9182
▁다니던	-10.9192
▁14	-10.9194
어머니	-10.9198
▁먹으려고	-10.9198
▁심사	-10.9199
▁재수없어	-10.9202
▁받았는데	-10.9207
▁안되나	-10.9209
아니	-10.921
났어	-10.9227
▁피드	-10.9227
죄송합니다	-10.9235
치고	-10.9236
▁괜찮지	-10.9238
하긴	-10.9247
▁빌리는	-10.925
정한	-10.9252
▁심장	-10.9261
▁올게요	-10.9265
▁명확	-10.9269
▁킹	-10.9272
또	-10.9278
밤	-10.9285
▁꿀	-10.9291
w	-10.9292
▁하시네	-10.9294
▁알겠네	-10.9298
▁기대해	-10.9299
me	-10.9303
▁틀리	-10.9303
▁성장하	-10.9307
▁싶은거	-10.9309
했는데	-10.931
▁지났어	-10.9317
▁ab	-10.9323
▁일세	-10.9325
운전	-10.9329
▁촉	-10.9337
▁마셔서	-10.9341
▁전에	-10.9343
▁댄	-10.9345
▁맞나	-10.9353
하냐	-10.9359
▁바꿔주	-10.9373
▁시나	-10.9374
었는지	-10.9379
들이	-10.9384
으세요	-10.9388
▁안되면	-10.9406
▁걸어서	-10.9414
뚝	-10.9415
▁껀데	-10.942
드려	-10.9422
▁줄테니	-10.9426
효	-10.9428
▁닮아	-10.9442
▁건강하	-10.9442
된	-10.9451
윽	-10.9452
장님	-10.9457
▁깨끗하	-10.9462
▁꾸지	-10.9469
낼	-10.9469
▁망하	-10.9469
밖	-10.9477
o	-10.9482
not	-10.9486
싸게	-10.9487
낙	-10.9488
프레	-10.9499
파서	-10.9507
V	-10.9511
된다니까	-10.9513
▁있을거야	-10.9513
큐	-10.9514
▁게시	-10.9518
▁이내	-10.9522
▁유리	-10.9526
▁간단	-10.9529
▁해보면	-10.9538
▁살다	-10.954
▁하였다	-10.9542
▁들어주	-10.9544
▁리해	-10.9546
냉	-10.9548
헌	-10.9551
▁긁	-10.9559
▁텅	-10.9561
렉	-10.9564
▁키우는	-10.957
▁해주시기	-10.9573
▁소중	-10.958
▁말아요	-10.9583
se	-10.9583
공화	-10.9589
▁안되어	-10.9609
▁대꾸	-10.9611
▁사는지	-10.9625
▁갈비	-10.9626
왔는데	-10.9632
스토	-10.9635
오겠습니다	-10.9644
주도	-10.9647
▁나가기	-10.9656
▁사준거	-10.9659
▁에다	-10.9669
▁부르지	-10.967
▁그럴거	-10.9681
▁받는다	-10.9681
▁걸리는	-10.9689
▁잘났	-10.9691
▁싶다는	-10.9693
▁사다	-10.9698
▁듣자	-10.9713
▁넣으	-10.9725
있으	-10.9727
▁나가게	-10.9739
▁편한	-10.9741
▁따라하	-10.9745
▁미치는	-10.9766
▁꼼꼼	-10.9766
▁까불	-10.9791
▁다양하	-10.9794
▁에스	-10.9799
▁궁	-10.981
▁들어온거	-10.9814
▁당연한	-10.9819
어져	-10.9822
▁맞은	-10.9831
절한	-10.9834
진짜	-10.9839
▁벗어나	-10.9839
▁모은	-10.9842
셨잖아	-10.9849
▁폈	-10.9871
있는거	-10.9884
▁갚았잖	-10.9886
▁끈	-10.9887
▁빙	-10.9887
았는데	-10.9891
잖	-10.9897
▁c	-10.9904
▁하시려	-10.9906
▁나오라	-10.9908
▁괴롭히지	-10.9917
옷	-10.9923
리지	-10.9932
▁Ro	-10.9933
▁않았다	-10.9936
▁작아	-10.9939
▁있을지	-10.9963
▁살았어	-10.9976
▁액	-10.999
▁비싼거	-11.0006
▁머냐	-11.0017
▁참다	-11.0017
▁웨	-11.0026
▁기대	-11.0029
▁맞는거	-11.0036
▁주실	-11.0042
▁귀엽	-11.0048
▁어림	-11.0053
▁있었다	-11.0055
났는데	-11.0062
▁행정	-11.0083
놨어	-11.0086
▁물려	-11.0096
하겠어	-11.0097
▁U	-11.0098
드리	-11.0101
집니다	-11.0102
주셨	-11.0113
▁살빼	-11.0123
▁비슷하	-11.0125
▁말아야	-11.0133
▁퍼뜨	-11.0152
▁원만	-11.0157
▁따라오	-11.0159
▁말라	-11.0162
옵	-11.0163
▁뿌릴	-11.0168
▁이러니	-11.0174
▁궁금한	-11.0183
▁안정	-11.0187
었	-11.0193
라야	-11.0199
▁어울릴	-11.0201
▁고등	-11.0212
▁다쳤	-11.0218
킨	-11.0219
▁받아들여	-11.0221
▁올라가	-11.0222
해야지	-11.0224
▁찌질하	-11.0241
▁가르쳐	-11.0252
▁말씀드릴	-11.0262
렸을	-11.0267
▁잃어	-11.0277
▁나타	-11.0287
▁끝낼	-11.0291
닌	-11.0291
▁쓰러	-11.03
▁느리	-11.0302
▁전시	-11.0308
다시	-11.031
▁어울리는	-11.0311
▁스마	-11.0312
릿	-11.0312
▁조심할게	-11.0313
▁이었	-11.0313
▁갑니다	-11.0315
▁애니	-11.0323
쩍	-11.0329
▁안되잖아	-11.0335
▁옳	-11.0343
if	-11.0351
랍	-11.0354
▁밴	-11.0356
▁뻗	-11.0356
▁왤	-11.0356
▁쵸	-11.0356
▁쿼	-11.0356
▁흰	-11.0356
꿍	-11.0356
랗	-11.0356
볍	-11.0356
뿔	-11.0356
삥	-11.0356
셉	-11.0356
쭉	-11.0356
칩	-11.0356
칸	-11.0356
컹	-11.0356
튕기	-11.0356
햐	-11.0356
▁기독교	-11.0356
▁뚱땡	-11.0356
▁부딪혔	-11.0356
▁블랙	-11.0356
▁싹싹	-11.0356
▁맞춤	-11.0356
▁제삿날	-11.0356
▁사기꾼	-11.0357
▁소름끼	-11.0357
▁스튜	-11.0357
▁훔치	-11.0357
▁살려주십	-11.0357
▁스케줄	-11.0357
▁192	-11.0358
▁스킨	-11.0359
▁꾸준	-11.036
▁뮤지	-11.036
▁일어난	-11.0363
▁으로부터	-11.0366
▁비겁	-11.0367
▁소비자	-11.0368
▁갔을	-11.037
▁엄연	-11.037
다니깐	-11.0371
▁더듬	-11.0371
▁했을텐데	-11.0372
▁쪼	-11.0372
▁회복	-11.0374
▁어시스턴트	-11.0374
▁가벼	-11.0375
▁돌려줬잖아	-11.0375
▁referr	-11.0375
▁맞기전에	-11.0378
▁무서우	-11.0378
▁실패	-11.0379
▁올려놔	-11.038
▁살인자	-11.038
▁고치겠습니다	-11.0383
▁여기있습니다	-11.0383
▁변호	-11.0385
▁너무하신거	-11.0388
▁기대할게	-11.0389
▁저승	-11.0391
▁껍	-11.0391
▁강남	-11.0393
▁지친다	-11.0393
▁아깝다	-11.0394
▁빨간	-11.0395
▁마십시오	-11.0396
▁소릴	-11.0398
▁막힌	-11.0398
▁많으니까	-11.0398
▁나타내	-11.0398
▁멋지	-11.04
▁활발	-11.04
▁보낼게요	-11.0401
▁보도	-11.0401
이냐	-11.0402
▁화학	-11.0403
▁만족해	-11.0409
▁죽을거야	-11.0411
▁오신	-11.0413
▁친하게	-11.0421
▁좋겠냐	-11.0421
▁해드립니다	-11.0422
▁그런거아니야	-11.0423
▁혼수	-11.0427
▁대단한	-11.043
▁뽑히	-11.0431
▁퇴직	-11.0433
투표	-11.0439
▁소스	-11.0439
▁창피하	-11.0441
▁확실한	-11.0441
▁알려주세요	-11.0442
▁야합니다	-11.0444
떡	-11.0445
▁나오지마	-11.0445
▁보내주시	-11.0448
▁하십시오	-11.0451
▁살살	-11.0452
▁이럴수	-11.0456
▁안된다는	-11.0464
▁윤리	-11.0464
▁긋	-11.0465
▁줍	-11.0467
▁화해	-11.0468
거려	-11.0469
아보	-11.0469
▁뉘	-11.047
▁돕는	-11.0472
▁터져서	-11.0473
▁강간	-11.0474
▁민감	-11.0475
▁나주	-11.0476
▁사귀는	-11.0477
▁찔리	-11.048
▁대단하다	-11.0481
▁피곤해서	-11.0484
▁피곤해	-11.0485
▁아니였어	-11.0485
▁그만해주세요	-11.0486
▁번쩍	-11.0488
▁특수	-11.0493
해요	-11.0494
▁들여	-11.0496
런건	-11.0499
▁계셔서	-11.0501
▁모른다고	-11.0502
▁괜찮으	-11.0504
▁프라이	-11.0505
▁꺄	-11.0509
▁따른	-11.0509
▁잡은	-11.0509
엔	-11.0511
▁꼬라	-11.0512
▁세포	-11.0513
▁말을하	-11.0524
▁살지마	-11.0531
▁둘러	-11.0532
▁자를	-11.0533
▁증명	-11.0536
▁매달	-11.0541
d	-11.0543
▁걸지마	-11.0547
▁봅	-11.0548
▁기다린	-11.0549
나야	-11.055
▁바른	-11.055
▁사주신거	-11.0551
실거에요	-11.0557
▁들어간거	-11.0558
우면	-11.0559
▁낮은	-11.056
MC	-11.056
▁생물	-11.0569
▁양성	-11.057
▁가보지	-11.0572
▁드럽	-11.0576
▁알았네	-11.0576
▁알아야지	-11.058
▁김지	-11.0582
▁들어야지	-11.0588
▁사라진	-11.0589
h	-11.0591
▁모르겠다	-11.0594
▁다녔어	-11.0595
▁지쳐	-11.0597
▁이상하다	-11.0601
▁움찔	-11.0606
▁리필	-11.0607
▁고양	-11.0609
▁영원	-11.0612
▁합격	-11.062
▁섹시	-11.062
▁돌아와	-11.0623
었네	-11.0626
▁사왔어	-11.0631
▁마이	-11.0632
르크	-11.0637
▁아프고	-11.0643
▁심리	-11.0646
▁먹냐	-11.0649
▁창피해	-11.0651
▁괴롭히면	-11.0662
뒤	-11.0666
꼴	-11.0668
▁깨끗한	-11.067
▁혼났	-11.0675
▁담주	-11.068
욕	-11.0685
▁어려워서	-11.0688
어머	-11.0689
▁어렵나	-11.069
▁그러는거	-11.0692
▁쳐다봤	-11.0693
▁두세요	-11.0693
▁굴려	-11.0694
▁돌아서	-11.0703
셔야	-11.0707
▁혁	-11.0712
▁나가자	-11.0722
▁어울리지	-11.0725
▁뽑았	-11.0729
▁안되겠구	-11.073
▁때리는	-11.0732
▁편안	-11.0741
▁소용없	-11.0741
봤는데	-11.0747
▁다니라고	-11.0748
▁피시	-11.0752
▁다가	-11.0757
▁해주신	-11.0767
▁잘생겼	-11.0771
▁맞고싶어	-11.0778
▁맞추	-11.078
롭	-11.08
▁잠자	-11.0819
▁도와주라	-11.0823
4	-11.0824
▁쓰시	-11.0826
▁나온거	-11.083
▁틀어	-11.083
시네	-11.0836
▁알고있어	-11.084
고싶어서	-11.0843
▁고속	-11.0843
함을	-11.0845
▁랬	-11.0847
▁스러워	-11.0848
아니라	-11.0853
놓지	-11.0856
▁괴	-11.0861
▁들어야	-11.0862
▁배웠어	-11.0864
▁잇어	-11.0868
▁달린	-11.0872
▁내지마	-11.0873
▁들지	-11.0875
▁드는거	-11.0875
총	-11.0876
이십	-11.0876
▁놔라	-11.0884
▁앉으	-11.0888
▁옮	-11.0902
▁생겼으	-11.0913
몇	-11.0914
▁대에	-11.0915
▁사직	-11.0916
▁피워	-11.0925
테니	-11.0927
▁사오고	-11.0942
▁추워	-11.0945
▁해드려	-11.0949
▁멍청해	-11.0951
▁V	-11.0952
▁다운	-11.0961
는다고	-11.0961
▁뽀	-11.0963
▁많고	-11.0979
▁만들었어	-11.098
▁병인	-11.0996
▁울어	-11.1002
▁풍	-11.1005
▁하셨나	-11.1011
빠	-11.1013
▁렌	-11.1016
시겠어요	-11.104
▁시킨거	-11.1052
H	-11.1056
▁가르	-11.1056
▁쉬어야	-11.1061
었던	-11.107
▁심해서	-11.1071
▁해봤어	-11.1074
덜	-11.1082
▁시키기	-11.109
춘	-11.1094
암	-11.1099
▁가위	-11.1103
sh	-11.1112
풀	-11.1113
▁쟁	-11.1115
같이	-11.1116
껀	-11.1116
▁해야하	-11.1117
벼	-11.112
윤	-11.1124
관광	-11.1135
▁크다	-11.1144
nt	-11.1151
랬	-11.1154
▁피우	-11.1156
▁할려고	-11.1157
▁들어오지	-11.1157
베이	-11.1158
▁보일	-11.1158
층	-11.116
er	-11.1165
차근	-11.1167
▁였잖아	-11.1169
▁아니었	-11.1183
빡	-11.1184
▁나냐	-11.1184
▁나갈게	-11.119
▁했다가	-11.1192
▁줄까	-11.1193
▁주겠다	-11.1194
▁깨지	-11.1194
▁오는거	-11.12
훼	-11.1205
▁렉	-11.1216
텅	-11.1219
▁김부	-11.1227
▁대들	-11.1227
▁놔요	-11.1227
▁갚는	-11.1229
줬잖아	-11.1229
사고	-11.1231
▁타오	-11.124
질러	-11.1249
L	-11.126
▁엎	-11.1265
이구	-11.1282
▁없어지는	-11.1282
▁이집	-11.129
▁뽑는	-11.1293
▁갚겠다	-11.1309
▁쌓	-11.1315
다녀	-11.1325
치면	-11.1329
▁자자	-11.1334
줬는데	-11.1344
▁올래	-11.1346
▁오게	-11.136
▁털려	-11.137
▁원자	-11.1375
▁레이	-11.1376
▁올려야	-11.1389
▁먼데	-11.1391
▁베이	-11.1395
▁수고	-11.1397
▁풀리	-11.1415
한테	-11.1416
▁데려	-11.1434
셨죠	-11.144
▁힐	-11.1441
▁돌려줄	-11.1459
▁me	-11.1462
▁올렸	-11.1468
▁틀	-11.1471
통신	-11.1478
▁신문	-11.1503
▁재수없는	-11.1506
▁비위	-11.151
▁따라오라	-11.1533
육	-11.1538
▁Ho	-11.1543
▁FI	-11.1543
지면	-11.156
▁맛보	-11.1569
▁본거	-11.1571
드로	-11.1571
▁오백만	-11.1572
▁거지같	-11.1581
▁하시던	-11.16
으면서	-11.1605
▁들어올	-11.1606
▁달래	-11.1612
▁자원	-11.1621
▁패스	-11.1622
▁봐주시	-11.1626
▁다르다	-11.1634
어보	-11.1651
▁뜯어	-11.1668
보시는	-11.1672
강한	-11.1678
▁사나	-11.1683
▁닦	-11.1685
▁대성	-11.169
지지	-11.1691
▁만나러	-11.1702
▁해왔	-11.1706
▁기대하	-11.1721
▁했다면	-11.1726
▁적합	-11.1732
▁좋아하시	-11.1736
▁사마	-11.1737
▁잃	-11.1745
▁편안하	-11.1749
▁늦으	-11.1751
▁않겠	-11.1755
▁서있어	-11.1763
▁아우	-11.1766
▁be	-11.1766
▁집니다	-11.1767
▁mu	-11.1772
▁not	-11.1774
▁찔	-11.1777
▁이러지말	-11.1794
당한	-11.1799
▁댔	-11.1799
▁데려오	-11.18
▁재밌는	-11.1801
▁객	-11.181
▁가난	-11.1819
30	-11.1828
▁적절하	-11.1832
▁동아	-11.1834
▁달리	-11.1856
▁쓸모	-11.1856
하는거	-11.1873
▁겠지	-11.1875
▁i	-11.1877
▁다녀왔	-11.1884
았습니다	-11.1884
▁나타날	-11.1891
▁짓거	-11.1895
▁입지	-11.1897
▁하자고	-11.19
▁해주라	-11.1905
졌다	-11.1919
하는게	-11.192
▁넘길	-11.1924
시아	-11.193
▁똑똑하	-11.1943
▁챙	-11.1953
▁so	-11.1955
셨다면	-11.1961
▁간지	-11.1965
▁따돌	-11.1967
짜고	-11.1985
▁잡는	-11.1986
▁이렇	-11.1991
지금	-11.1994
▁해왔어	-11.1995
▁끝내야	-11.1995
▁해줄테니	-11.1998
▁굴러	-11.2002
▁젊	-11.2002
▁안됩니	-11.2003
▁받아주	-11.2004
▁귓	-11.2014
▁삐	-11.2022
굉	-11.2023
▁specif	-11.2023
▁꼼	-11.2023
▁꽃	-11.2023
▁넥	-11.2023
▁롤	-11.2023
▁루마니아	-11.2023
▁뱅	-11.2023
▁버틸	-11.2023
▁사귈	-11.2023
▁쐬	-11.2023
▁아이슬란드	-11.2023
▁푹	-11.2023
▁핳	-11.2023
냔	-11.2023
롸	-11.2023
릉	-11.2023
멤	-11.2023
뺌	-11.2023
셈	-11.2023
쇄	-11.2023
젤	-11.2023
캡	-11.2023
컥	-11.2023
컷	-11.2023
퀄	-11.2023
▁맺	-11.2023
▁이슬람	-11.2023
▁assist	-11.2023
▁that	-11.2023
▁두껍	-11.2023
▁멈추	-11.2023
out	-11.2023
▁이루어졌습니다	-11.2023
▁득표	-11.2023
▁돌았	-11.2023
▁토나올	-11.2024
▁훈련	-11.2024
▁지질학	-11.2024
▁깔깔	-11.2025
▁으윽	-11.2025
▁람보	-11.2025
▁바쁠	-11.2026
▁풍경	-11.2026
▁염산	-11.2027
▁47	-11.2027
▁그만두던가	-11.2027
▁멋진	-11.2028
▁흘려	-11.2031
▁넘어갈	-11.2032
▁사라질	-11.2033
▁상실했	-11.2033
▁해볼께요	-11.2035
▁빠져가지고	-11.2035
▁패션	-11.2036
▁양념	-11.2036
▁고소할거야	-11.2036
▁됐는지	-11.2038
▁옳은	-11.2039
▁설거지	-11.2039
▁가보겠습니다	-11.204
▁쏟아	-11.204
▁유명합니다	-11.2041
는거냐	-11.2043
▁죽을거	-11.2046
▁살겠다	-11.2046
▁낳은	-11.2048
▁가르치	-11.2048
▁법학	-11.2049
▁보나	-11.205
▁답답한	-11.2052
▁퍼뜨리	-11.2052
▁시켜줄게	-11.2054
▁퍼트	-11.2055
▁가볼게요	-11.2058
▁일어났	-11.206
▁사라져라	-11.206
▁자율	-11.206
▁그랬어야지	-11.2061
▁아랫	-11.2061
▁겪어	-11.2062
있어서	-11.2062
▁해드렸	-11.2063
▁끝냈는데	-11.2064
▁클레	-11.2065
▁곤란한데	-11.2065
▁쪄서	-11.2065
▁사먹어	-11.2066
▁기다려줘	-11.2066
▁꺼지	-11.2069
▁패배	-11.2069
▁하셨습니다	-11.207
셨어	-11.2071
▁글러	-11.2073
▁농구	-11.2073
▁숨겨놓	-11.2076
▁촉박해	-11.2079
▁지키면	-11.2079
▁뛰어내릴	-11.208
준다고	-11.2081
▁저러고	-11.2083
▁찾아오지	-11.2084
▁던진	-11.2086
▁물어보는	-11.2087
▁어떤가	-11.2089
▁동창	-11.2092
이잖아	-11.2094
푸	-11.2094
▁나갈거야	-11.2096
▁빠져나가	-11.2097
▁이런데	-11.2099
▁노르	-11.21
▁쫄았	-11.21
▁뻔했어	-11.2101
▁써와	-11.2102
▁뒀어	-11.2104
사진	-11.2104
었다고	-11.2109
▁모으	-11.2111
▁불쾌한	-11.2112
▁그러는거지	-11.2113
▁고급	-11.2114
▁가난한	-11.2115
▁쓰는건	-11.212
▁생태	-11.2123
▁들으니까	-11.2124
▁놀자	-11.2126
▁미칠	-11.2126
▁큰소리	-11.2128
▁밀려서	-11.2131
▁셀	-11.2134
▁않을거야	-11.2135
▁알려줄	-11.2137
▁번역	-11.2143
▁할거예요	-11.2144
▁꼽	-11.2146
▁뱃	-11.2146
▁십자	-11.2147
▁들었나	-11.2147
▁파는	-11.2148
▁쳤으면	-11.2151
방해	-11.2153
▁해야하는거	-11.2153
▁이돈	-11.2154
▁하고싶지	-11.2155
▁앉을	-11.2156
▁습	-11.2156
▁줬던	-11.2159
▁전투	-11.2159
▁구라치	-11.216
▁알려지	-11.2161
▁뒤뚱	-11.2163
▁무식	-11.2164
▁쉽지	-11.2167
▁보낸다	-11.2168
▁알았으면	-11.217
▁샤오	-11.2173
▁좋겠는데	-11.2175
▁심심해	-11.2177
▁어떡하지	-11.2179
▁쌓아	-11.2179
▁콜로	-11.2182
▁스위	-11.2182
▁진정하게	-11.2185
▁키워주	-11.2186
이드	-11.2187
▁받으니까	-11.2188
▁짜증나니까	-11.2189
표시	-11.219
▁괜찮다	-11.2194
▁나왔다	-11.2195
▁바꾸자	-11.2197
▁잃어버리	-11.2197
▁건조	-11.2203
▁버렸어요	-11.2208
▁해준거	-11.2209
▁틀려	-11.2216
▁모여	-11.2219
▁억울해	-11.2219
▁고추	-11.2221
▁막혔어	-11.2228
▁봤을	-11.2233
▁지하	-11.2234
▁방학	-11.2239
▁주십시요	-11.2243
▁숨기	-11.225
▁걸어가면	-11.225
▁이의	-11.225
▁맡고	-11.225
▁이른다	-11.2252
▁좋으	-11.2253
▁미안할	-11.2254
▁옮기는	-11.2255
지가	-11.2255
▁예쁘네	-11.2261
▁급이	-11.2264
▁불려가	-11.2266
없긴	-11.2285
▁잡치	-11.2286
▁쓰냐	-11.229
▁나는거	-11.2292
▁빗	-11.2293
▁숲	-11.2293
▁오세	-11.2293
▁박근	-11.2306
▁내려와	-11.2306
▁아깝지	-11.2308
▁먹을게	-11.2317
▁만나지	-11.2319
▁염	-11.232
▁저러	-11.2321
▁민씨	-11.2324
▁느껴지	-11.2327
▁위험할	-11.2332
▁아까운	-11.2336
▁받은거라	-11.2337
▁가져가지	-11.2338
▁지켜야	-11.2338
▁나가세요	-11.2345
▁놀면	-11.2348
▁유부	-11.2351
▁물리학	-11.2355
놨	-11.2359
▁시키시는	-11.236
▁다음	-11.2364
▁시집	-11.2367
▁쳤다	-11.2373
▁때렸	-11.2373
▁퍼센	-11.2382
있네	-11.2383
▁알려줘야	-11.2383
등교	-11.2385
▁자동	-11.2394
▁왔으면	-11.2396
▁잃었	-11.2399
20	-11.2401
▁먹을래	-11.2415
▁힘들다	-11.2417
▁소방	-11.2436
▁도우	-11.2437
▁드릴테니	-11.2442
좋은데	-11.2443
▁사는거	-11.2443
▁이대	-11.2459
▁고소할	-11.2469
하겠습니다	-11.2478
▁닦아야	-11.2481
▁저래	-11.2486
▁타로	-11.2497
보고	-11.2499
▁이정	-11.2504
▁오르	-11.2507
▁깨어	-11.2515
us	-11.2521
▁야해서	-11.2539
▁도와주는	-11.254
▁이쁘지	-11.2547
▁가고싶	-11.2549
하시면	-11.2553
▁예수	-11.2556
▁뽑을	-11.2558
▁기운	-11.2563
될것	-11.2565
▁데려가	-11.2566
▁신기하다	-11.2571
▁중대	-11.2572
거라	-11.2576
▁하십니다	-11.2576
▁지켜보	-11.259
▁끝나서	-11.2593
▁이었잖아	-11.2593
▁X	-11.2593
▁부러워	-11.2597
▁눈물	-11.2605
▁L	-11.2608
▁w	-11.2614
▁쓰이	-11.2615
▁올리면	-11.2618
▁차가운	-11.262
▁멍청	-11.2626
▁넣어놓	-11.2626
▁빠릿	-11.2627
▁절뚝	-11.2629
▁먹었잖아	-11.2633
시겠다	-11.2649
▁하신다	-11.2651
▁텍스	-11.2654
슬리	-11.267
▁편해	-11.2676
▁새치	-11.2681
▁가져갈	-11.2686
▁감사하	-11.2697
ual	-11.27
▁대요	-11.2705
▁안될거	-11.2705
로그	-11.2715
▁유대	-11.2717
▁그만둬야	-11.2729
▁분이	-11.2729
▁듣겠어	-11.273
▁상업	-11.2734
▁시원하	-11.2741
먹	-11.2744
▁쇠	-11.2744
▁대수	-11.275
10	-11.2754
▁힘들었어	-11.2757
▁버려서	-11.2762
▁델	-11.2762
▁갈라	-11.2765
▁썼는데	-11.2766
▁수표	-11.2772
줬으면	-11.2773
▁달라지	-11.2777
▁지키는	-11.278
버스	-11.2785
▁80	-11.2792
▁찾아볼	-11.2792
▁참았	-11.2793
겁	-11.2801
핑	-11.2817
▁나갔어	-11.2821
▁에어	-11.2837
치자	-11.2838
▁훔쳤	-11.2846
▁드셔	-11.285
▁마주	-11.2852
▁잘나가	-11.2857
▁싶었	-11.2857
▁걸어가	-11.2861
▁가실	-11.2863
▁불필요	-11.287
가면	-11.2877
▁부실	-11.2879
만해	-11.2884
▁수분	-11.2884
▁단단	-11.29
위생	-11.2901
▁다냐	-11.2902
센	-11.2903
▁70	-11.2907
▁드는데	-11.2907
▁신기하	-11.2908
▁구질구질하	-11.2912
eas	-11.2913
▁간거	-11.2913
▁부르면	-11.2919
린데	-11.292
▁고아	-11.2927
▁모른다	-11.2929
▁했었어	-11.2934
쁘네	-11.2936
놓으	-11.294
▁숨겨	-11.2942
오는	-11.2942
▁그러셔	-11.2943
▁잊어	-11.295
▁보고싶	-11.2952
▁계셔	-11.2958
▁시키는거	-11.2963
▁부족하다	-11.2969
▁야하는	-11.2972
▁안다고	-11.2974
▁싫냐	-11.2991
▁하는구	-11.3001
고시	-11.3001
▁묻어	-11.3002
▁잖	-11.3006
▁단정	-11.3009
▁60	-11.3011
en	-11.3018
▁사다줄	-11.3022
▁나오시	-11.3023
wi	-11.3031
▁나잖아	-11.3041
보호	-11.3046
윗	-11.3051
협	-11.3053
▁죄송한	-11.3055
웠	-11.3058
▁때려치	-11.3067
느리	-11.308
는거예요	-11.3085
▁보는거	-11.3086
▁부어	-11.3087
▁좋을까	-11.3097
냅니다	-11.3103
▁잘났다	-11.3107
▁진정하시	-11.3108
주시겠어요	-11.3111
게나	-11.312
▁심각	-11.3123
▁말던	-11.3124
렌	-11.3132
▁했거든	-11.3135
킥	-11.3137
깍	-11.314
▁로스	-11.3154
교통	-11.316
ce	-11.3161
타이	-11.3161
▁따뜻하	-11.3173
고싶은	-11.3173
▁없구	-11.3174
▁힘들지	-11.3174
an	-11.3177
멸	-11.3178
플러	-11.3184
▁달콤	-11.3187
등급	-11.3194
▁가는지	-11.3195
다해	-11.3197
▁사전	-11.3199
▁묻는	-11.3201
▁될것	-11.3206
쇠	-11.3207
뽀	-11.3207
조약	-11.321
갈비	-11.3214
탑	-11.3216
▁사시	-11.3217
▁되었나	-11.3223
▁차분	-11.3228
다니고	-11.3231
▁쓰라	-11.3242
▁칠	-11.3255
▁뚝	-11.3256
▁정신차리겠	-11.3262
▁비싼건	-11.3265
▁말안	-11.327
섭	-11.327
▁해달	-11.328
▁줬으니	-11.3283
▁믿겠	-11.3288
▁뒤졌	-11.331
▁가져오라	-11.3313
▁꼬이	-11.3317
태우	-11.3317
▁지켜봐	-11.3319
하시죠	-11.3323
▁된다는	-11.3325
메이	-11.333
▁김수	-11.3341
▁아프시	-11.3343
▁와요	-11.3348
▁드시는	-11.3362
▁보죠	-11.3368
▁불리	-11.3371
▁찾아갈	-11.3372
꼬우	-11.3378
신거	-11.3386
▁장인	-11.3396
▁똑같네	-11.3396
▁뿌	-11.3411
▁쌓여	-11.3421
주셔야	-11.3431
▁했었	-11.3432
▁봤거든	-11.3438
▁198	-11.3438
▁찾아올	-11.3439
▁아는거	-11.3447
▁놔야	-11.3464
릴거야	-11.3468
▁시내	-11.3471
▁두는	-11.3477
es	-11.3481
▁떼어	-11.3497
▁싫어하는	-11.3499
▁박아	-11.3503
▁버린	-11.3512
선수	-11.3515
▁꼬시	-11.3516
▁해야하나	-11.3548
개발	-11.3548
대전	-11.3568
50	-11.3579
살아요	-11.3583
▁지났	-11.3594
아야지	-11.3603
▁시켰다	-11.3605
▁비어	-11.361
란다	-11.3612
▁날아	-11.3628
대리	-11.3629
굴리	-11.3631
▁천만	-11.3632
었잖아	-11.3645
던데요	-11.365
주지	-11.3652
▁해보니	-11.3655
▁나오기	-11.3665
▁역겹	-11.3668
▁없는지	-11.367
만하	-11.3671
▁분리	-11.3682
▁돌려줘야	-11.3686
▁망해	-11.3695
▁떠는	-11.3698
ine	-11.3707
▁여겨	-11.3709
▁22	-11.3715
해진	-11.3715
껀데	-11.3715
었을	-11.3724
▁뚫	-11.373
▁뿐이	-11.3739
▁미쳤다	-11.3748
에서	-11.375
▁찍은거	-11.3755
▁좁	-11.3755
▁사라	-11.3758
▁소용	-11.3773
▁당연한거	-11.3774
▁으이	-11.3775
▁초보	-11.3778
c	-11.3786
▁다시해	-11.3791
▁해준다	-11.3791
▁돕	-11.3791
▁더럽다	-11.3792
내고	-11.3803
▁빌린다	-11.381
▁먹던	-11.3825
마이	-11.383
▁믿는	-11.3839
▁지나갈	-11.3839
▁대하	-11.3848
는다	-11.3852
저기	-11.3853
▁쓴거	-11.3858
▁생기는	-11.3863
▁껄	-11.3866
▁친거	-11.3883
없어	-11.3918
▁살려내	-11.392
▁좋겠	-11.392
▁놓아	-11.3924
▁같더라	-11.393
시려	-11.393
▁왼	-11.3936
나무	-11.3942
보면	-11.3945
타민	-11.3951
몬	-11.3955
▁않으시	-11.3957
▁가져와야	-11.3957
▁어떡하라	-11.3957
11	-11.3957
▁늙	-11.3964
▁사소한	-11.3968
앗	-11.397
오고	-11.3972
▁떨어질	-11.3977
▁사게	-11.3998
▁가르쳤	-11.4003
씬	-11.4011
쭈	-11.4012
▁지낼	-11.4013
렴	-11.4014
▁낭	-11.4014
룰	-11.4015
▁보수	-11.4015
읍	-11.4017
▁복잡한	-11.4019
▁뵙	-11.402
▁부딪	-11.4021
꾼	-11.4022
랙	-11.4022
팡	-11.4022
▁스윙	-11.4023
▁젖	-11.4023
▁쿨	-11.4023
unders	-11.4023
▁give	-11.4023
▁person	-11.4023
▁sprout	-11.4023
▁곰	-11.4023
▁깽	-11.4023
▁닛	-11.4023
▁바뀔	-11.4023
▁부숴	-11.4023
▁빤	-11.4023
▁쉴	-11.4023
▁여쭤	-11.4023
▁짭	-11.4023
▁쨌는데	-11.4023
겄	-11.4023
뜩	-11.4023
뜸	-11.4023
랩	-11.4023
랭	-11.4023
멧	-11.4023
샷	-11.4023
숫	-11.4023
슉	-11.4023
엣	-11.4023
쟨	-11.4023
즌	-11.4023
쩝	-11.4023
첩	-11.4023
캣	-11.4023
톤	-11.4023
틈	-11.4023
▁눌렀	-11.4023
▁엮	-11.4023
헝	-11.4023
▁고분고분	-11.4023
▁Ope	-11.4023
▁feeling	-11.4023
▁느낀	-11.4023
OV	-11.4023
▁프린터	-11.4023
▁싱글	-11.4023
▁부담스럽	-11.4023
im	-11.4023
▁some	-11.4023
▁미생물	-11.4024
▁바퀴	-11.4024
▁뉘르	-11.4025
▁반가워	-11.4025
▁올바르	-11.4025
▁알앗어	-11.4025
TS	-11.4025
▁450	-11.4026
▁즐겨	-11.4026
▁몸뚱	-11.4026
▁정신차릴래	-11.4026
▁놔둬	-11.4026
▁부당합니다	-11.4027
▁any	-11.4027
▁묵시	-11.4028
▁크윽	-11.4029
▁자빠졌	-11.4029
▁찌그러져	-11.4029
▁셀러	-11.403
▁찾아보겠습니다	-11.4031
▁모자란	-11.4031
▁뚫린	-11.4031
▁띄지마	-11.4035
▁갖추	-11.4035
▁살찐	-11.4036
▁잘리	-11.4041
▁풍부	-11.4043
▁개자식	-11.4045
▁초코	-11.4046
▁부려	-11.4047
▁불쌍해라	-11.4048
▁지워줄게	-11.4049
겟네	-11.4049
▁칼퇴	-11.405
▁아니었어	-11.405
▁거슬려	-11.405
▁Cha	-11.405
▁더러우니	-11.4051
▁청결	-11.4052
▁보육	-11.4053
▁이루어지	-11.4054
▁생김	-11.4054
▁낳아서	-11.4055
▁삿	-11.4055
▁같길래	-11.4057
▁잊을	-11.4058
▁뒤졌다	-11.4058
▁죽고싶다	-11.4059
▁미스터	-11.406
▁자퇴	-11.4062
▁불편합니다	-11.4062
▁기다리세요	-11.4062
▁고마운	-11.4063
▁동일	-11.4066
▁분명하지	-11.4069
▁먹다가	-11.407
▁파워	-11.4071
▁어딨는지	-11.4071
▁스테	-11.4072
▁출연	-11.4072
▁무식하	-11.4074
▁보낼게	-11.4074
▁까발리	-11.4075
▁권태	-11.4076
▁차릴래	-11.4077
▁부릅니다	-11.4078
▁계신데	-11.4079
▁청아	-11.4082
▁억울해요	-11.4083
▁사소한거	-11.4083
▁외교	-11.4085
▁도망갔	-11.4087
▁버렸어	-11.4088
▁이어지	-11.4088
▁높을	-11.4089
▁배고파	-11.409
▁국무	-11.4094
▁병역	-11.4094
▁보내겠습니다	-11.4095
▁빠를	-11.4095
▁드리려고	-11.4099
ri	-11.4105
▁아니었어요	-11.4107
▁해주겠어	-11.411
▁놀자고	-11.4113
▁세련	-11.4113
▁배때	-11.4114
▁빌릴게	-11.4114
▁보여주세요	-11.4116
해질	-11.4119
▁가득	-11.4119
▁퍼져	-11.4122
▁따돌리	-11.4124
▁김철	-11.4125
▁곤란해요	-11.413
칼	-11.4131
▁좋아졌	-11.4132
▁자본	-11.4133
▁틀렸잖아	-11.4134
▁캐리	-11.4134
▁나간다	-11.4135
▁당한	-11.4135
▁따라와라	-11.4136
▁봐주십시오	-11.4136
▁그러면서	-11.4139
▁찌르기	-11.4141
▁혼난	-11.4142
▁따라다니	-11.4143
▁단편	-11.4143
▁카운	-11.4145
▁넓	-11.4146
▁썩은	-11.4146
▁때릴	-11.4148
▁흉	-11.4152
▁덤	-11.4156
▁깔아	-11.4156
▁해올게요	-11.4158
▁빌려주는거	-11.4161
활	-11.4161
▁끊기	-11.4162
▁네트	-11.4163
▁친해지	-11.4165
▁썻	-11.4168
▁즉	-11.4168
▁필요하거든	-11.417
▁정확하지	-11.4179
▁느린	-11.4182
▁해십니다	-11.4186
▁여기있	-11.4187
▁들었을	-11.4189
▁따뜻한거	-11.4191
▁나타날게	-11.4194
▁방송	-11.4196
▁나가라	-11.4196
▁들었으면	-11.4198
▁흔들	-11.4202
갈거니까	-11.4205
▁간병	-11.4206
▁뚫리	-11.4208
▁bean	-11.4218
▁성취	-11.422
돼지	-11.4222
▁Can	-11.4225
▁반짝	-11.4225
x	-11.4226
▁빨라	-11.4227
▁버릴거	-11.4227
▁되겠냐	-11.4238
▁나노	-11.4239
▁닫아	-11.424
와서	-11.424
▁사귀어	-11.4243
▁살아라	-11.4244
▁놀랐	-11.4247
▁보던가	-11.4248
ore	-11.425
할께요	-11.4253
▁바라보	-11.4254
▁장모	-11.4256
▁계시는	-11.4259
듭니	-11.426
▁주셨는데	-11.4263
▁공과	-11.4267
▁끼치	-11.4268
▁개못	-11.4269
리도	-11.427
▁소중하	-11.427
▁좋아한다	-11.4275
▁Vi	-11.4276
▁낳으	-11.4281
▁전남	-11.4285
▁찍혔	-11.4286
▁채우	-11.4291
▁되었는	-11.4294
▁없을거	-11.4296
▁Me	-11.4298
▁모르시	-11.4298
▁28	-11.4298
▁황해	-11.4304
우려	-11.4307
▁소연	-11.4308
▁아르	-11.431
▁날려	-11.4314
▁박혀있어	-11.4317
▁정직	-11.4321
▁자란	-11.4321
▁망쳤	-11.4327
▁다니니	-11.4336
▁편이	-11.4338
하신	-11.4339
▁불편하신	-11.4344
▁부러져	-11.4345
▁한가한	-11.4345
▁다녀올	-11.4348
▁곤란할	-11.4349
▁렛	-11.4351
▁흙	-11.4351
▁강력	-11.4351
▁씹냐	-11.4353
▁갈것	-11.4353
▁심각하다	-11.4355
났네	-11.4356
▁그립	-11.436
▁벌려	-11.4362
▁끝냈어	-11.4365
▁막히	-11.4366
▁김민	-11.437
▁짜져	-11.4372
▁최민	-11.4373
▁보내세요	-11.4376
▁배고	-11.438
▁아니라니까요	-11.438
▁소비	-11.439
▁보여야	-11.4391
▁보내준	-11.4391
▁역겹다	-11.4392
▁둘이	-11.4397
▁그만두	-11.4401
▁받을게	-11.4406
▁편해서	-11.4407
▁맞든	-11.4408
▁날아가	-11.4409
▁rec	-11.4412
졌는데	-11.4413
▁미나	-11.4424
▁엘리	-11.4429
▁호박	-11.443
▁토마	-11.4431
▁창피하지	-11.4434
▁갖다주	-11.4437
▁그랬다는	-11.4442
▁내놓으라	-11.4445
▁시킬게	-11.4452
▁사먹	-11.4453
▁거짓	-11.4453
▁있겠습니다	-11.446
▁식물	-11.446
싶은데	-11.4461
▁가난해	-11.4461
▁21	-11.447
▁간절	-11.447
▁없다구	-11.4472
▁하지말라	-11.4474
▁벌리	-11.4477
▁오는거야	-11.4494
▁가능해	-11.4494
▁하다는	-11.4495
▁신다면	-11.4496
▁루이	-11.4496
봤잖아	-11.4496
nam	-11.4496
▁성실	-11.4498
▁얻으	-11.4507
▁사올게	-11.451
▁잃고	-11.4513
싸	-11.4515
을줄	-11.4518
▁갔다오	-11.4521
였는데	-11.4522
▁퍼지	-11.4525
눈	-11.4526
▁찍는	-11.4529
no	-11.4529
▁이러시는거	-11.453
▁캠	-11.4538
▁싶은가	-11.4541
▁si	-11.4544
▁소속	-11.4547
▁오네	-11.4555
▁없는것	-11.456
하지말고	-11.458
쳤냐	-11.4582
▁공중	-11.4587
▁소지	-11.4588
텔레	-11.4597
국사	-11.4598
께요	-11.4599
▁ca	-11.4603
▁나고	-11.4611
▁남았어	-11.4613
▁드니까	-11.4618
f	-11.4621
했으면	-11.4623
▁손잡	-11.463
린다고	-11.4648
쁜데	-11.4657
▁드시고	-11.4659
▁주는거	-11.4665
내면	-11.467
▁끼치지	-11.4671
▁손대지	-11.4672
마트	-11.4673
▁들렸	-11.4679
▁있습니	-11.4685
▁쓰겠다	-11.4685
▁까칠하	-11.4686
▁만났어	-11.4696
▁돌아오	-11.4696
▁심각하	-11.4703
▁나왔네	-11.4709
▁안나는데	-11.4715
▁만들어내	-11.4734
▁모를수	-11.4741
려는	-11.4744
▁불안해	-11.4752
▁사다주	-11.4757
▁궁금하면	-11.4762
▁가셔야	-11.4764
렸잖아	-11.4766
▁따르는	-11.4767
▁좋을거	-11.4767
▁당당하	-11.4774
▁기다리면	-11.4779
▁단정하	-11.478
했던	-11.4782
▁믿는다	-11.4789
▁끝나지	-11.4798
▁보이스	-11.48
▁안타깝지	-11.4807
▁물었	-11.4835
▁지나가다	-11.4847
본다	-11.485
▁고마워요	-11.4867
▁하랬	-11.4869
▁x	-11.4869
보건	-11.4872
ile	-11.4872
있지	-11.4876
ans	-11.4879
▁지나갔	-11.4883
고싶지	-11.4885
▁가로	-11.4886
▁놀리는	-11.4892
▁가도록	-11.4906
▁해준다는	-11.4911
겟어	-11.4912
▁해야겠네	-11.492
▁조심하	-11.4928
▁이성	-11.4928
▁주시겠어요	-11.4933
▁소리내	-11.4941
▁바뀌어	-11.4941
▁먹겠어	-11.4949
▁무섭네	-11.495
거니	-11.4956
▁참을	-11.4965
테리	-11.4979
▁무사	-11.4981
▁남았다	-11.4983
▁나쁜데	-11.4985
▁그럴께	-11.4986
19	-11.499
제품	-11.5
빼	-11.5006
▁차였	-11.5009
▁적합하	-11.5018
▁배워야	-11.5026
▁잃어버렸다	-11.5042
▁놓을	-11.5046
▁우울하	-11.5048
▁마셨	-11.5058
▁않거	-11.5063
▁그만두고	-11.5067
▁다가오지	-11.5068
▁건드리	-11.5076
▁주도하	-11.509
▁태어	-11.5092
프로	-11.511
▁보냈어	-11.5118
▁나오는거	-11.5121
▁쉬워	-11.5122
▁달라구	-11.5139
▁잡아서	-11.514
탁	-11.515
▁살아가는	-11.5167
▁넣는	-11.5178
▁버린다고	-11.5179
ast	-11.5182
ir	-11.5214
▁섞어	-11.522
▁알려주는	-11.5224
▁궁금	-11.5243
▁wh	-11.5257
▁부르셨어	-11.5257
운다	-11.526
▁지어	-11.526
▁볼거	-11.526
기술	-11.5267
▁재미있는	-11.5268
▁뺏는	-11.5273
▁베풀	-11.5273
▁부족했	-11.5281
▁입상	-11.5286
▁죽을지	-11.53
겨집니다	-11.5302
▁험	-11.5302
▁타줘	-11.5308
그럽	-11.5314
▁해줄수있	-11.5325
▁아쉽	-11.5327
하죠	-11.5327
▁흐리	-11.5328
▁유용하	-11.5337
영화	-11.5338
▁지른	-11.5342
드릴께요	-11.5347
▁유용	-11.5349
▁뒤지고싶	-11.5355
어른	-11.5363
▁다루	-11.5366
▁않았습니	-11.537
한다	-11.5371
▁자수	-11.5374
공장	-11.5379
상승	-11.5381
▁코스	-11.5384
나네	-11.5391
▁줘야해	-11.5392
▁그랬다	-11.5394
▁망한	-11.54
▁기원	-11.5402
▁있었는	-11.5411
▁좋았	-11.5415
하나요	-11.5417
▁가겠다	-11.5426
▁넉넉	-11.5429
▁서울대	-11.5434
▁이상하잖아	-11.5449
였으	-11.5451
▁순수	-11.5451
▁바른거	-11.5457
▁갈거	-11.546
▁부럽	-11.5467
▁지켜볼	-11.5467
▁다이	-11.5468
홍	-11.5468
▁일기	-11.547
▁치르	-11.5473
▁추운	-11.5485
내가	-11.5488
떠	-11.549
▁불러주	-11.5496
▁얼어	-11.5497
▁따르시	-11.5502
▁외로	-11.5504
쥐	-11.5507
▁고마	-11.551
▁입어야	-11.551
▁없었다	-11.5526
▁조심해야	-11.5529
▁받은건	-11.5529
ood	-11.5535
▁불려	-11.5538
▁페이	-11.554
▁안좋았	-11.5541
▁이구	-11.5552
논	-11.5561
▁재밌겠	-11.5563
빈	-11.5579
시오	-11.558
넘기	-11.558
▁만만하니	-11.5581
놀이	-11.5581
나도	-11.5584
▁담고	-11.5584
노트	-11.5587
쌤	-11.5587
사회	-11.5589
▁찾으면	-11.5592
짱	-11.5593
▁잘릴	-11.5594
팩	-11.5602
▁원한다	-11.5603
▁보냐	-11.5604
딱	-11.5605
버시	-11.5605
그냥	-11.5607
▁사올	-11.5616
떄	-11.5616
▁맛있다	-11.5616
근무	-11.5617
벅	-11.5618
▁가져가는	-11.5619
꼬리	-11.562
▁이루	-11.562
듬	-11.5627
▁였다	-11.5633
▁보낼테니	-11.5633
▁정수	-11.5642
빠릿	-11.5645
▁그런거잖아	-11.5647
절뚝	-11.5649
▁좋아하는데	-11.565
완	-11.5653
융	-11.5653
햇	-11.5653
툭	-11.566
워크	-11.5665
컨	-11.5672
▁괜찮겠	-11.5675
앤	-11.568
▁생겼나	-11.568
웅	-11.5683
퉁	-11.5683
▁나가시	-11.5685
댄	-11.5687
X	-11.569
▁대단하	-11.5693
보던지	-11.5694
촉	-11.5697
▁동문	-11.5698
잖어	-11.5703
U	-11.5706
물고	-11.5708
주민	-11.5713
놓던가	-11.5717
는줄	-11.5718
낮	-11.5721
▁사줄	-11.5724
ence	-11.5727
▁붙어있	-11.5733
▁깔이	-11.5734
▁잊고	-11.5739
심한데	-11.5741
할래	-11.5743
▁물어보시	-11.5743
▁넘는	-11.5743
▁하시라고	-11.5745
▁친절	-11.5749
▁돌아갈	-11.5749
▁한다니	-11.5756
▁궁금하다	-11.5758
▁그만하	-11.5761
장난	-11.5769
주라	-11.5775
▁시킨다	-11.5782
▁마셔야	-11.5783
▁많았	-11.5786
▁불리는	-11.5792
두면	-11.5794
ay	-11.5796
렸	-11.5814
인줄	-11.5823
▁좋아하지	-11.5855
▁새거	-11.5856
63	-11.5858
▁들어가면	-11.5864
서로	-11.5873
싶어	-11.5873
▁이르	-11.5874
드리지	-11.5875
▁차릴	-11.5878
▁하려구	-11.5889
▁인도	-11.5889
▁원하시	-11.5898
▁때우	-11.5901
왔잖아	-11.5902
▁보실	-11.5915
▁제트	-11.592
▁차릴거	-11.592
▁올릴거	-11.5935
▁거주	-11.5941
▁보신	-11.5946
▁196	-11.5953
로워	-11.5955
하지마	-11.5963
▁얹	-11.5963
▁끝나는	-11.5968
▁물어봐야	-11.5971
▁있는거고	-11.5973
이고	-11.5978
▁책임져	-11.5979
먹을	-11.5981
▁갈기	-11.5985
지게	-11.5986
갈기	-11.6001
▁놀리지	-11.6001
이러	-11.6007
▁어울리는거	-11.6014
겠구	-11.6014
있나	-11.6022
왔어야지	-11.6022
▁사와야	-11.6028
▁뵈	-11.6044
▁숨쉬	-11.6046
▁혈	-11.606
▁팔았	-11.6068
ent	-11.6072
▁알아내	-11.6083
▁오리	-11.6084
▁해온	-11.6093
▁버텨	-11.6098
체중	-11.6104
셨네	-11.6118
▁만들지	-11.6136
▁챙겨주	-11.6142
▁토스	-11.6151
스트리	-11.6152
▁실시	-11.6168
▁만들었	-11.6182
▁당당	-11.6183
▁동해	-11.6189
▁보겠다	-11.6193
60	-11.6204
▁막혔	-11.621
z	-11.6224
▁가져왔다	-11.6225
▁변했	-11.623
랐	-11.6231
▁Su	-11.6234
44	-11.6238
▁고파	-11.6241
정규	-11.6249
▁죽은거	-11.6251
아질	-11.6267
았	-11.6271
▁나갔다	-11.6284
레이	-11.6288
습니	-11.6291
▁떠들	-11.6299
▁쉬고싶어	-11.6307
▁묶	-11.6315
▁자는	-11.6318
▁모르니	-11.6322
▁주요	-11.6336
▁예지	-11.6338
커피	-11.6339
▁치는거	-11.6346
▁가셨	-11.6352
돌려	-11.6358
▁알아듣는	-11.6359
다니네	-11.6362
▁우기	-11.6365
che	-11.6366
▁안줘	-11.6368
▁싫었	-11.6373
닐	-11.6396
tion	-11.64
▁건드렸	-11.6403
▁딱이	-11.6411
▁쉬었	-11.6432
▁입히	-11.6436
▁다가오	-11.6445
▁말세	-11.6447
반지	-11.645
▁같잖아	-11.645
▁지킬	-11.6452
▁두려	-11.6456
▁아니잖	-11.6459
▁지나간	-11.6471
▁놔두	-11.6471
▁말씀드렸어	-11.6478
▁받아들	-11.6478
하셨어요	-11.648
속도	-11.6481
▁잃어버	-11.6486
같은	-11.6489
▁좋아하는거	-11.6491
▁말아	-11.6491
▁내린	-11.6491
▁부탁드려	-11.6491
▁내는거	-11.6493
▁하지말아	-11.6494
▁지내는	-11.6495
▁무겁	-11.6496
쁠	-11.6499
▁깁	-11.6503
흘	-11.6504
▁이끌어	-11.6504
▁기어오르	-11.6514
▁쳤	-11.6516
시던가	-11.6519
킄	-11.6523
▁전화하	-11.6523
쁩	-11.6523
▁낡	-11.6523
Q	-11.6523
▁갠데	-11.6523
▁곧	-11.6523
▁닳	-11.6523
▁댕	-11.6523
▁덧	-11.6523
▁먹읍시다	-11.6523
▁미흡	-11.6523
▁붉	-11.6523
▁숟	-11.6523
▁싯팔	-11.6523
▁썅	-11.6523
▁얇	-11.6523
▁옙	-11.6523
▁왁	-11.6523
▁쪘	-11.6523
귿	-11.6523
넬	-11.6523
녜	-11.6523
늉	-11.6523
띵	-11.6523
럿	-11.6523
롯	-11.6523
룡	-11.6523
릐	-11.6523
몫	-11.6523
밭	-11.6523
빅	-11.6523
뻘	-11.6523
솜	-11.6523
솥	-11.6523
숍	-11.6523
엊	-11.6523
좔	-11.6523
톨	-11.6523
헨	-11.6523
혓	-11.6523
▁better	-11.6523
▁뺄	-11.6523
▁끔찍	-11.6523
▁뚱떙	-11.6523
▁아름답	-11.6523
▁2021	-11.6523
▁고마웠어	-11.6523
▁낮춰	-11.6523
▁가로지르	-11.6523
▁어두워	-11.6523
▁쿠팡	-11.6523
▁stat	-11.6523
▁헤어짐	-11.6523
▁쳐다볼	-11.6523
▁금강산	-11.6523
▁프렌	-11.6523
▁쪄가지고	-11.6524
▁침착하	-11.6524
▁랴오	-11.6524
▁2016	-11.6524
▁둘테니	-11.6525
AR	-11.6525
▁흘렸	-11.6525
▁2014	-11.6525
▁예쁨	-11.6525
▁부담스러	-11.6525
▁빼앗	-11.6525
▁심심한데	-11.6526
▁얼어붙	-11.6526
▁깜빵	-11.6527
tions	-11.6527
▁바꿨	-11.6527
▁싸웠	-11.6527
▁900	-11.6527
▁꺼지라니까	-11.6527
▁무서울	-11.6527
▁테블	-11.6528
▁밟아	-11.653
▁트레이	-11.653
▁서둘러	-11.653
▁1200	-11.653
▁올려놨	-11.6531
▁그만두던지	-11.6531
▁글렀	-11.6532
▁1500	-11.6532
▁자랐	-11.6533
▁De	-11.6533
▁낭비	-11.6533
▁만들어졌습니다	-11.6533
▁한심해	-11.6535
▁400	-11.6535
▁징병	-11.6535
▁작곡	-11.6535
▁마땅	-11.6536
페라	-11.6536
▁흘리	-11.6536
▁옮길	-11.6536
▁귓구	-11.6537
▁많으니	-11.6537
▁신을게	-11.6537
▁스콜라	-11.6537
▁무서웠	-11.6538
▁지울	-11.654
▁누르	-11.6542
▁괴롭혔다고	-11.6543
부르크	-11.6543
▁부르겠습니다	-11.6543
▁연결합니다	-11.6544
▁물어볼게	-11.6544
▁앉아있어	-11.6545
▁람	-11.6545
▁알아볼	-11.6546
▁멈춰줘	-11.6546
▁안타깝게	-11.6547
▁참아주세요	-11.6547
▁바랄게요	-11.6547
▁간단하게	-11.6549
▁울겠다	-11.6549
▁싫거든	-11.6549
▁죄송합	-11.655
▁해보시던가	-11.655
▁썩을	-11.6551
▁좋으면서	-11.6551
▁싫었어	-11.6551
▁무능한	-11.6552
▁맞을려고	-11.6554
▁말조심해	-11.6554
▁밀접	-11.6554
▁저리가	-11.6555
▁기대해라	-11.6555
▁갚아줘	-11.6555
▁않으셨	-11.6556
▁드셨	-11.6556
의원	-11.6556
▁떠올리	-11.6558
▁간단히	-11.656
▁밝혀지	-11.6561
▁무너지	-11.6563
▁한심한	-11.6564
▁관종	-11.6565
▁데리고있다	-11.6565
▁나쁘네요	-11.6566
▁O	-11.6566
▁꾸며	-11.6566
▁35	-11.6568
▁건축	-11.6569
▁가졌	-11.6569
▁찾아보세요	-11.657
▁리포	-11.6571
▁빌린것	-11.6571
▁터질	-11.6571
▁블라	-11.6574
▁아프겠다	-11.6574
▁양파	-11.6576
▁재워주	-11.6577
▁들리는	-11.6577
▁맞아야겠다	-11.6578
▁어눌해	-11.6578
▁없었잖아	-11.6578
▁망가졌	-11.6578
▁버릴거라고	-11.6583
▁불쌍하	-11.6585
▁말씀드려	-11.6587
없이	-11.6588
▁오죽	-11.659
▁털릴	-11.6592
▁까불어	-11.6593
▁살살해	-11.6593
대학교	-11.6595
▁물어본	-11.6595
▁믿습니다	-11.6595
ode	-11.6596
치렁	-11.6602
▁도와줄수	-11.6602
▁걸었으면	-11.6604
▁찾으시는	-11.6605
▁많을	-11.6606
▁나가겠습니다	-11.6607
▁가르쳤냐	-11.6607
▁나갈래	-11.6609
▁낮게	-11.6609
▁뚱뚱한거	-11.6611
▁올림	-11.6612
▁까매	-11.6614
▁유언	-11.6614
▁하셨다면	-11.6618
▁나타나지	-11.6619
▁들었다	-11.662
▁뻔하네	-11.6629
▁교과	-11.663
▁붙인	-11.6633
▁아니겠지	-11.6634
▁왼손	-11.6635
▁하실거	-11.6637
▁알릴	-11.6638
가게	-11.6639
▁느껴지는	-11.6641
▁맞추고	-11.6642
▁짧다	-11.6643
▁갔는지	-11.6644
▁평화	-11.6646
▁서운한	-11.6646
줘야해	-11.6647
▁숨겼	-11.6648
▁올라오	-11.665
▁해주신다면	-11.6652
▁뭐라구	-11.6652
▁묻히	-11.6653
폭행	-11.6654
한다고	-11.6654
▁사먹고	-11.6656
▁다니시는	-11.6661
▁해보여	-11.6664
▁아니였는데	-11.6665
▁알려줄수	-11.6666
▁꼬리치	-11.6667
▁194	-11.6667
▁W	-11.6668
ords	-11.6669
▁죽이겠다	-11.6669
▁리조	-11.6671
▁이었으면	-11.6676
▁들어가세요	-11.6677
▁되었는지	-11.6677
문학	-11.6677
ge	-11.6678
▁스파	-11.6679
▁드셨는데	-11.668
위원	-11.6681
▁바쁘다	-11.6681
갔는데	-11.6683
▁알아와	-11.6689
▁분이시	-11.6689
▁싶네요	-11.6693
려는데	-11.6694
▁겸	-11.6697
▁원하는대로	-11.6701
▁하고있어	-11.6704
▁띨	-11.6705
▁켁	-11.6705
▁갓	-11.6705
▁똘	-11.6705
▁잭	-11.6705
▁묘	-11.6705
▁해줄께	-11.6707
▁좋겠네요	-11.6708
▁놀거야	-11.6711
하시고	-11.6712
▁긴말	-11.6712
▁보이던데	-11.6712
▁평등	-11.6713
인가	-11.6713
▁튼	-11.6713
셨나	-11.6715
▁세워	-11.6716
▁잼있	-11.672
▁가르쳐주	-11.6726
▁두겠습니다	-11.6727
호르	-11.6728
▁따끔	-11.673
▁환갑	-11.6733
▁걸어다니지	-11.6737
▁당당한	-11.6738
다야	-11.6739
▁생긴것	-11.6739
겨서	-11.674
▁떼우	-11.674
ard	-11.6741
▁일으	-11.6742
▁찍자	-11.6743
▁아니거든요	-11.6743
▁올라갈	-11.6744
▁영생	-11.6747
▁올라간	-11.6748
▁야비	-11.6762
▁떨어진다	-11.6765
▁뽑아야	-11.6766
▁이오	-11.6767
▁내줘	-11.677
▁만만한	-11.6771
▁떨려	-11.6776
▁맙	-11.678
▁포르	-11.678
▁주신거	-11.678
어야	-11.6782
이너	-11.6782
▁넘기는	-11.6783
▁모를거	-11.6789
▁살겠습니다	-11.6789
▁알리는	-11.679
▁나간다고	-11.6791
▁맛없	-11.6791
▁없으려니까	-11.6792
▁행복해	-11.6795
▁돌시	-11.6799
▁있겠지	-11.6801
▁놀아주는	-11.6801
▁들어줘	-11.6807
▁돌아가셨	-11.681
들라고	-11.6813
▁학업	-11.6813
▁모았어	-11.6815
▁성직	-11.6819
▁쓰세요	-11.6821
▁되는건	-11.6821
▁마른	-11.6822
▁전복	-11.6823
▁재고	-11.6824
겼어	-11.6828
으로도	-11.6829
없어요	-11.683
▁쓸모없	-11.6832
▁뽑자	-11.6835
▁빛나	-11.6837
▁기다려라	-11.6847
ad	-11.685
▁듣겠다	-11.6855
▁하더	-11.6856
아주면	-11.6857
▁아프지	-11.6859
켜	-11.686
▁들어오기	-11.6862
▁가까운	-11.6863
근거	-11.6865
▁나눠주	-11.6869
▁썼지	-11.687
▁치러	-11.6871
▁죽인	-11.6873
▁좁아	-11.6876
ber	-11.6881
▁댔어	-11.6883
▁좋지만	-11.6889
▁상당	-11.6889
▁한거니	-11.69
았다고	-11.69
▁꼬리쳤다	-11.6905
▁키우면	-11.6906
▁살려내라	-11.691
▁보여주고	-11.6911
▁법정	-11.6913
▁들었지	-11.6916
▁집행	-11.6921
웠어	-11.693
▁방위	-11.6931
오기	-11.6937
▁구리	-11.6939
▁쳐다보냐	-11.6944
▁꽁	-11.6946
▁닉	-11.6946
▁됏	-11.6946
▁쌔	-11.6946
▁지말아줘	-11.6947
▁싸운	-11.6953
▁먹여주	-11.6959
▁급해	-11.6964
▁신데요	-11.6971
갈거야	-11.6971
▁무리한	-11.6972
려줘	-11.6974
▁편리	-11.6979
▁스러	-11.6979
▁아카	-11.6983
▁만들라고	-11.699
▁걷어	-11.699
▁앉게	-11.699
▁날뛰	-11.6992
▁헤어진지	-11.6994
▁프란	-11.6995
▁p	-11.6995
▁모질	-11.6995
▁지내자	-11.6995
▁lo	-11.6999
▁인정받	-11.7005
가기전에	-11.7005
칠게	-11.7007
▁되도	-11.701
▁부수	-11.7011
ve	-11.7012
▁있겠다	-11.7018
▁비켜요	-11.7018
▁참는다	-11.7019
▁마신	-11.7023
▁높여	-11.703
▁갚을거	-11.7038
제발	-11.7039
재판	-11.7041
했다	-11.7041
▁몰랐다	-11.7043
싶었어	-11.7043
편하잖아	-11.7046
▁민망하	-11.705
▁좋아졌다	-11.7054
레스	-11.706
▁싸울	-11.7062
▁예민	-11.7064
▁알파	-11.7065
▁드렸어	-11.7077
▁전화할	-11.7081
말아주세요	-11.7084
▁써주	-11.7086
▁나갔는데	-11.7092
▁걸어다니	-11.7093
▁가냐	-11.7097
▁입으	-11.7099
▁했다니까	-11.7101
▁쥐어	-11.7104
ck	-11.7107
▁위장	-11.7108
▁끄면	-11.7113
▁스피	-11.7113
▁귀엽다	-11.712
이랑	-11.7129
▁불쾌하	-11.7134
▁두시	-11.7137
워서	-11.7138
▁전과	-11.7138
하다면	-11.7142
▁미용	-11.7142
▁볼거야	-11.7145
▁트라	-11.7146
▁올라왔	-11.7146
자마	-11.7157
▁독서	-11.7159
▁논다	-11.7163
▁아메리카	-11.7169
▁혼날	-11.717
▁li	-11.7179
rk	-11.7184
▁하시고요	-11.7186
▁쫓아가	-11.7186
▁불안하	-11.7192
▁쯔	-11.7193
▁붕	-11.7193
▁해독	-11.7197
▁가능한지	-11.7204
산더	-11.7205
▁까먹었	-11.7205
▁많나	-11.7209
▁붙었	-11.7213
▁자르기	-11.7219
▁빌려주냐	-11.722
▁아니꼬	-11.7221
▁남은거	-11.7225
▁좋아지	-11.7227
ip	-11.7233
▁떨리	-11.7234
▁드러워	-11.7237
할거	-11.7239
▁되었을	-11.7255
▁죽일수	-11.7259
▁줍니다	-11.7264
▁메기	-11.7268
당히	-11.727
▁늙었	-11.7274
▁우아	-11.7277
▁하는군	-11.7279
▁해주는데	-11.7281
난다	-11.7282
▁플래	-11.7283
k	-11.7288
▁버릴게	-11.7291
▁하자는거	-11.7291
▁말던지	-11.7293
▁공동	-11.7299
▁찾아내	-11.7301
▁빌리겠다	-11.7301
야하는	-11.7307
▁신약	-11.7312
▁들어가야	-11.7314
▁돌렸어	-11.7316
내는	-11.7318
사양	-11.7318
▁해보려	-11.7323
냈어	-11.7329
▁울리는	-11.733
보네	-11.7334
▁생겨가지	-11.7339
▁현수	-11.7344
▁사네	-11.736
▁귀여운	-11.7364
▁히	-11.7365
던거	-11.7366
▁가보자	-11.7368
▁친다	-11.7381
▁괜찮으시	-11.7385
▁바뀌었	-11.7398
▁낳는	-11.74
▁안되는거	-11.7407
37	-11.7419
▁어림없	-11.742
▁좋아질	-11.7425
▁다냐고	-11.7427
▁안되니까	-11.7427
▁조용히해	-11.743
▁바란	-11.7431
▁불편할	-11.7437
▁앤	-11.7443
▁오실	-11.7443
▁자성	-11.7444
▁소음	-11.7449
야겠네	-11.7454
▁마주치는	-11.7468
넌	-11.7469
▁가지고오	-11.7471
▁태어났	-11.7471
▁뽑은	-11.7477
▁알려주는거	-11.7479
▁유사	-11.7479
▁어긋나	-11.7479
하거든	-11.7482
▁속상하	-11.7483
▁오천	-11.7501
▁연결하	-11.7526
▁입력	-11.7529
이나	-11.7531
▁없어져	-11.7532
▁믿기	-11.7545
길거야	-11.7545
은거	-11.755
▁메이	-11.7553
▁할만	-11.7558
▁쓸거	-11.7559
놓	-11.756
▁흥분해	-11.756
▁계시는데	-11.7571
▁아프네	-11.7572
▁쓰는거	-11.7579
▁약해	-11.7591
▁나누어	-11.7596
▁하셨네	-11.7598
▁친절하	-11.7604
꺼져	-11.7606
▁갈테니	-11.7612
▁노는데	-11.7621
▁닮았다	-11.7621
▁징그러	-11.7632
▁건드린다	-11.7632
▁체중	-11.7632
▁콜	-11.7634
▁살아가	-11.7634
▁피어	-11.7638
▁사러	-11.7647
▁쉬고	-11.7653
사실	-11.7663
먹으면서	-11.7665
▁낸다고	-11.7667
▁이영	-11.7668
95	-11.7679
그렇게	-11.7687
주는데	-11.7687
▁때린	-11.7692
라구	-11.7697
▁사귄다	-11.7719
▁으로서	-11.7721
겠군	-11.7738
하네요	-11.7747
▁넉넉하	-11.775
대학	-11.7752
ra	-11.7754
▁천지	-11.7762
쳤네	-11.7765
▁필요하시	-11.7769
▁바꿔줘	-11.7771
은데	-11.7779
▁놨	-11.7784
▁거두	-11.7805
볼래	-11.7809
▁버리든	-11.781
▁밀었	-11.7818
▁기다	-11.7822
▁같았	-11.7824
▁바쳐	-11.7843
▁않겠다	-11.7844
▁말아주	-11.7859
abi	-11.7859
▁벗으	-11.786
▁샀다	-11.7863
▁까불지	-11.787
▁버리지	-11.7878
va	-11.7886
▁찌질해	-11.7886
하실	-11.7888
▁나체	-11.789
천만	-11.7891
▁틀렸다	-11.7891
▁않으면서	-11.7894
▁돌아가지	-11.7896
갔다	-11.7905
공산	-11.7911
▁오는데	-11.792
▁봐주라	-11.793
▁주어	-11.7934
▁나간거	-11.7939
▁들리겠	-11.7944
▁짤릴	-11.7948
빨리	-11.7956
▁더러	-11.7958
▁솔직	-11.7977
▁불평	-11.798
▁싫어하	-11.7998
▁있는것	-11.8001
▁않겠지	-11.8008
▁해달라는거	-11.8014
오늘	-11.8029
▁부러지	-11.8029
▁피는	-11.8034
맞	-11.8041
다구	-11.8044
시는거	-11.8045
▁탁	-11.8051
▁멀었	-11.8056
친다	-11.8065
▁전화하지	-11.8077
▁이방	-11.8079
▁냈다	-11.8081
▁쉽다	-11.8084
▁가고싶은	-11.8089
꼬	-11.8093
▁있었지	-11.8095
▁딸아	-11.8119
이사	-11.8123
만한	-11.8124
아침	-11.8128
▁들으라	-11.8147
▁나쁘잖아	-11.8149
▁죽일거	-11.815
흑	-11.8152
▁구질구질	-11.8153
▁참지	-11.8163
끔	-11.8177
000	-11.8186
싶어서	-11.819
et	-11.8194
▁해볼테	-11.8195
뜻	-11.8209
▁끌었	-11.821
▁정중	-11.822
▁심했	-11.8221
으려고	-11.8223
▁욕먹	-11.8225
▁황	-11.823
싼	-11.8234
▁급한거	-11.8254
▁겠어요	-11.8257
▁pl	-11.8259
▁신건	-11.8274
▁경수	-11.828
아갈	-11.8291
▁창피	-11.8292
▁들어줄	-11.8295
▁불편함	-11.8295
선거	-11.8299
랐어	-11.8311
▁많구	-11.8327
▁대면	-11.8335
▁심하십	-11.835
대표	-11.8351
▁냈는데	-11.8353
▁까먹	-11.8355
▁비타	-11.8363
▁돌보	-11.8367
이지	-11.8368
오래	-11.8388
나마	-11.8388
▁개구	-11.8389
올라	-11.8393
▁사귄	-11.8407
▁0000	-11.841
▁갈았	-11.8413
관리	-11.842
▁준다는	-11.8427
▁좌	-11.8427
▁올리셨	-11.8428
▁해달라는	-11.8444
었지	-11.8444
는거니	-11.8448
▁살아있는	-11.845
▁남아있	-11.8455
▁잃어버렸	-11.8462
▁어쩌겠	-11.8464
▁봤다는	-11.8485
▁개기	-11.8491
▁먹고싶	-11.8503
▁벌어야	-11.8507
릴거	-11.8516
▁중요하다는	-11.8527
▁길게	-11.853
▁살아있	-11.8535
▁시켜야	-11.8538
잠	-11.8539
보자	-11.8547
▁알겠으니	-11.8548
하시거	-11.8552
▁안되네	-11.8564
한국	-11.8574
▁없어지	-11.8574
▁비싸서	-11.8576
▁부끄러워	-11.8577
65	-11.8586
▁전용	-11.8587
아주	-11.8588
▁늘었	-11.8594
▁있을게	-11.8597
▁텍	-11.8604
▁깎아	-11.8619
여대	-11.8636
가능합니다	-11.8637
▁질리	-11.8638
▁정해져	-11.8643
낸	-11.8644
▁배우게	-11.8649
놀	-11.8653
mp	-11.8658
▁피니	-11.8662
▁de	-11.8663
▁찍으	-11.8665
아니냐	-11.8665
봅니	-11.8669
▁한거잖아	-11.868
▁넣었다	-11.8688
▁말거야	-11.8692
▁det	-11.8701
▁룸	-11.8705
rag	-11.8708
올께	-11.8709
▁학자	-11.871
▁마시게	-11.872
▁시키려	-11.8732
▁있던거	-11.8735
▁태어났으	-11.8739
농	-11.8739
▁마주치	-11.8742
▁치지	-11.8753
져요	-11.8757
았네	-11.8758
▁해주나	-11.8768
생각	-11.8773
유롭	-11.8773
▁있을테니	-11.8776
▁Cl	-11.8777
▁돌려줄테니	-11.8785
▁이기는	-11.8793
렸어	-11.8797
▁잘라줄	-11.8799
▁하고싶	-11.8799
이유	-11.8806
el	-11.8812
흐	-11.8814
라니	-11.8822
이지마	-11.8823
뚱	-11.8823
12	-11.883
▁다르잖아	-11.8831
▁쫓아갈	-11.8834
▁죽겠다	-11.8834
▁신사	-11.8835
▁몰아가	-11.8839
꿀	-11.8843
thing	-11.885
덴	-11.8854
▁쫓아	-11.8855
lit	-11.8865
▁뻔한거	-11.8876
똥	-11.8876
했다고	-11.8878
▁상속	-11.8881
▁하셨던	-11.8881
▁막고	-11.8891
쓴다	-11.8894
▁숨막	-11.8895
tu	-11.8906
▁불가능해	-11.8914
깜	-11.8928
핵	-11.8928
▁죽일꺼	-11.8928
▁고칠	-11.8932
꺼면	-11.8932
Do	-11.8941
▁오신다	-11.8945
웨이	-11.8946
▁사왔	-11.8947
▁산거	-11.8948
▁놈이	-11.8955
나온다	-11.8963
펑	-11.8965
있어야	-11.8972
▁죽자는거	-11.8975
▁기다렸	-11.8977
ur	-11.8982
랴	-11.8983
헬	-11.8983
▁풀어줄	-11.8986
▁털리	-11.8988
붕	-11.8991
쯔	-11.8991
▁흥분	-11.8994
혁	-11.8995
현성	-11.8995
캠	-11.8998
섬	-11.9001
▁가겠네	-11.9001
▁하셨어	-11.9003
▁하고싶어	-11.901
▁죽여줄	-11.9012
솔	-11.9014
렸다	-11.9015
줄꺼면	-11.9015
아메리카	-11.9019
as	-11.9023
플래	-11.9036
▁저러니	-11.9036
▁만들었다	-11.9042
▁찾아야	-11.9044
▁아끼는거	-11.9048
패스	-11.9051
시잖아요	-11.907
▁안드	-11.9071
과정	-11.9076
야하지	-11.908
▁해줬다	-11.9089
▁괴롭히다	-11.9096
가는것	-11.9097
브리	-11.9099
▁면도	-11.9101
▁해주겠	-11.9103
▁다니시	-11.9115
▁버릴테니	-11.9121
▁한가하	-11.9124
스럽	-11.9125
▁드시	-11.9142
▁찾아가야	-11.9143
셨던데	-11.9145
▁다닌거	-11.9146
▁우스	-11.9156
하기는	-11.9162
▁되셨	-11.9187
▁돌아가는거	-11.9194
진다고	-11.9194
▁서두르	-11.9199
▁알고	-11.9202
▁뻔했	-11.9204
▁가려는	-11.9207
▁드세	-11.9209
▁봤는	-11.9214
▁나쁘니	-11.9214
▁많지	-11.9244
▁민망	-11.9246
포스	-11.9248
mo	-11.9251
▁벌어오	-11.9265
▁늦지	-11.9271
▁려	-11.9282
푸는	-11.9285
▁쓰잖아	-11.9288
▁느꼈	-11.929
▁닿	-11.9291
▁단순하	-11.9291
말입	-11.9304
▁거쳐	-11.9309
들어와	-11.9313
▁괴롭히고	-11.9317
파이	-11.9318
▁썰어	-11.9318
▁봐주는	-11.933
하는거야	-11.9334
▁멋	-11.9342
▁먹어주	-11.9343
▁부족한거	-11.9343
▁가셔	-11.9344
줍니다	-11.9359
▁척추	-11.9368
▁부르시	-11.9373
▁속상	-11.9379
울래	-11.9388
리아	-11.9395
저스	-11.9404
▁넘었	-11.9413
▁훈	-11.9418
오세요	-11.9418
ate	-11.9424
오스	-11.9441
나게	-11.9462
▁보이잖	-11.9468
▁내놓는	-11.9472
▁걷는거	-11.9474
▁부적	-11.948
▁그런다	-11.9495
▁성공하	-11.9508
▁박혀있	-11.9509
▁반갑	-11.9512
으시고	-11.9516
▁이긴	-11.9524
▁해주는거	-11.9536
▁낫겠	-11.9553
▁들어오는	-11.9554
어학	-11.9555
▁죽어서	-11.9566
데가	-11.957
▁맹	-11.9573
▁박하	-11.9575
필요한	-11.9575
▁해놨	-11.9581
▁있다니	-11.9582
nd	-11.9582
▁막으	-11.9584
▁도와줘야	-11.9592
반하	-11.96
▁전화했	-11.9606
▁자르는	-11.9613
블로	-11.9613
아가	-11.9614
어지는	-11.9634
▁놀아주	-11.9636
▁만들어주	-11.9637
▁스크	-11.9641
▁찢	-11.9652
▁보내시	-11.9664
▁위급	-11.9668
▁챙길	-11.9669
▁밟	-11.9677
ct	-11.9682
▁날씬해	-11.9684
거운	-11.9692
▁3000	-11.9693
이치	-11.9696
▁Al	-11.9696
▁나치	-11.97
▁이럴거	-11.9713
rt	-11.9714
▁없더라	-11.9721
▁나가는데	-11.9721
▁보였	-11.9735
co	-11.9743
오르네	-11.9745
아리	-11.9747
▁망했	-11.9753
▁41	-11.9759
▁쪄	-11.9762
▁빨개	-11.9772
렇	-11.9791
▁불행하	-11.9803
끄는	-11.9805
뻐	-11.9805
▁해지	-11.9806
을수	-11.9808
▁고프	-11.9814
▁드러내	-11.9815
DI	-11.9825
▁짜증	-11.9828
▁썰	-11.9834
륙	-11.9834
▁괴롭혔	-11.9841
눠	-11.9842
▁섹	-11.9842
▁낳아	-11.9848
▁해주신다	-11.9849
▁미뤄	-11.9849
셜	-11.985
꿨	-11.985
▁같잖	-11.9852
렬	-11.9855
렝	-11.9856
뮬	-11.9856
신용	-11.9856
▁섰	-11.9856
▁콤	-11.9856
Y	-11.9856
▁help	-11.9856
▁괘씸	-11.9856
▁굼	-11.9856
▁궤	-11.9856
▁꼈	-11.9856
▁꾀	-11.9856
▁내쫓	-11.9856
▁뜬	-11.9856
▁맬	-11.9856
▁바뀐	-11.9856
▁봣	-11.9856
▁부드러워	-11.9856
▁불러일으키	-11.9856
▁뺨	-11.9856
▁삐뚤어	-11.9856
▁삽	-11.9856
▁쌌	-11.9856
▁지긋지긋해	-11.9856
▁쫓겨나	-11.9856
▁찌뿌둥	-11.9856
▁큭큭	-11.9856
▁튕겨	-11.9856
▁팍팍	-11.9856
갸	-11.9856
겉	-11.9856
괄	-11.9856
꺽	-11.9856
꾹	-11.9856
늠	-11.9856
댈	-11.9856
딕	-11.9856
랖	-11.9856
렐	-11.9856
렷	-11.9856
륜	-11.9856
맵	-11.9856
뭍	-11.9856
밉	-11.9856
밸	-11.9856
빔	-11.9856
뺑	-11.9856
셋	-11.9856
셧	-11.9856
슐	-11.9856
쏜	-11.9856
▁나댔	-11.9856
▁낯	-11.9856
▁덥	-11.9856
▁스페인	-11.9856
럐	-11.9856
▁까다롭	-11.9856
▁띠껍	-11.9856
▁치뤄야	-11.9856
▁망가뜨릴	-11.9856
▁치켜뜨	-11.9856
▁덴푸	-11.9856
▁뜨거웠	-11.9856
▁쿵쾅	-11.9856
▁찔렀	-11.9856
▁쌀쌀	-11.9856
port	-11.9856
▁qu	-11.9856
Mobil	-11.9856
▁묻느냐	-11.9856
▁도와줍니다	-11.9856
▁쪼끄	-11.9856
▁평화롭	-11.9856
▁낄낄	-11.9856
▁translat	-11.9856
▁후줄근	-11.9856
▁촉촉	-11.9856
▁귀여워	-11.9856
▁돌아다녔	-11.9857
▁게을러	-11.9857
▁흘러	-11.9857
▁이루어졌으	-11.9857
two	-11.9857
▁소홀	-11.9857
랍니다	-11.9857
▁Day	-11.9857
▁깨졌다	-11.9858
▁두렵	-11.9858
▁들먹이	-11.9858
▁밝힌	-11.9858
▁괴로워	-11.9858
▁미끄러	-11.9858
▁2017	-11.9859
▁탑승	-11.9859
▁얼버무	-11.9859
▁부딪혀	-11.9859
▁체지방	-11.9859
act	-11.9859
▁아토피	-11.9859
▁찌그러져있어	-11.9859
▁올라갔	-11.9859
oT	-11.9859
▁아프리카	-11.986
▁겸손	-11.986
▁2018	-11.986
▁편해졌	-11.986
▁두둑	-11.986
▁코미디	-11.986
▁뛰어놀	-11.986
▁어지간	-11.986
▁갇히	-11.9861
▁슬퍼	-11.9861
▁배부르	-11.9861
▁비쌀	-11.9861
▁무거워	-11.9861
▁조급해	-11.9861
▁벅차	-11.9861
▁돌아올	-11.9861
▁비린내	-11.9861
▁이어졌습니다	-11.9861
▁소셜	-11.9862
▁동남아	-11.9862
▁문란하	-11.9863
▁외롭	-11.9863
▁뛰어내려	-11.9863
▁노려보	-11.9863
▁여유롭	-11.9864
▁친해질	-11.9865
▁웨스트	-11.9866
▁그럴것이지	-11.9866
▁나타난	-11.9867
▁고소하겠습니다	-11.9867
▁뽑혀	-11.9867
▁그런거아니에요	-11.9868
▁새롭	-11.9868
▁싸우자는	-11.9868
▁좋았던	-11.9869
▁하느냐	-11.9869
▁지키겠습니다	-11.9869
▁일으키	-11.987
▁견디	-11.987
▁평범	-11.987
▁돌아온	-11.987
▁헤르	-11.987
▁미룰	-11.987
▁시켜놓	-11.9871
▁나오셨	-11.9871
▁끼쳐	-11.9872
▁치사하게	-11.9872
▁던질	-11.9872
▁넘기겠다	-11.9873
▁귀찮으니까	-11.9874
▁로맨	-11.9874
▁밤새	-11.9875
▁날아다니	-11.9875
▁멍청해가지고	-11.9875
▁살벌하	-11.9876
▁150	-11.9876
▁유연하	-11.9878
▁드린다니까	-11.9878
▁45	-11.9878
▁나타나지마	-11.9879
▁제조업	-11.988
▁찍혀	-11.988
▁가져온	-11.9881
▁아프셔서	-11.9882
▁이쁨	-11.9883
▁가볼까	-11.9883
▁로열	-11.9883
▁빌려줄께	-11.9883
▁빠질	-11.9884
▁신선한	-11.9886
erm	-11.9887
▁끝내겠습니다	-11.9888
▁건방지게	-11.9888
▁징징거리	-11.9889
▁저러냐	-11.9889
▁시끄러운	-11.9889
▁삼천	-11.989
▁망했어	-11.989
▁목욕	-11.989
▁해보던가	-11.989
▁넓히	-11.989
▁돌봐주	-11.9892
▁망하는거야	-11.9892
빻았	-11.9893
▁해주십시요	-11.9893
▁나갔습니다	-11.9894
▁좋겠죠	-11.9895
▁치열	-11.9896
▁두꺼	-11.9896
▁그랬던	-11.9897
▁알겠다고요	-11.99
▁잘살았	-11.9901
▁이쁜줄	-11.9902
▁까발릴	-11.9902
▁놀러와	-11.9903
▁비켜주세요	-11.9903
▁앉아있는	-11.9903
▁멀어서	-11.9904
▁근육	-11.9904
▁났으니	-11.9904
▁죽을거니까	-11.9904
▁창조	-11.9904
▁원활	-11.9905
▁파이프	-11.9905
▁소중하다고	-11.9905
▁마시던가	-11.9905
▁외워	-11.9906
질렀	-11.9908
AM	-11.9908
▁뛰어들	-11.9908
▁밤새서	-11.9909
▁뛰어내리	-11.991
▁나왔어야지	-11.9911
▁내보내줘	-11.9911
▁유익	-11.9911
▁보내준다	-11.9914
▁창피한	-11.9914
▁쓰던거	-11.9914
▁저지를	-11.9915
▁알짱	-11.9915
▁넘어가는	-11.9915
▁y	-11.9915
▁나오느라	-11.9917
▁씻는데	-11.9917
▁나오지말고	-11.9918
▁좀줘	-11.992
▁잊혀지	-11.9921
▁들켰	-11.9921
▁드립	-11.9921
▁죽이려고	-11.9921
▁야합	-11.9921
할까	-11.9923
▁94	-11.9923
르는	-11.9923
▁많으	-11.9923
▁커졌	-11.9923
▁있겠죠	-11.9926
▁먹인	-11.993
▁보든가	-11.993
▁숙여	-11.9933
▁비열	-11.9933
▁부를거야	-11.9934
▁유투	-11.9935
▁가이드	-11.9936
▁나와있나	-11.9937
▁시든가	-11.9937
▁설레는	-11.9938
▁세워주	-11.9938
▁불리할	-11.994
▁건드릴	-11.9942
▁튀어나와	-11.9942
▁땡겨	-11.9943
▁사귀자	-11.9945
▁털리고	-11.9946
▁죽을거라고	-11.9947
▁받아들이냐	-11.9948
▁골랐어	-11.9949
▁대단해	-11.9949
▁기다렸어	-11.995
▁살려주라	-11.9951
▁단정하게	-11.9951
▁낀거	-11.9952
▁멀어지	-11.9953
▁가봅	-11.9954
▁쪽팔렸	-11.9957
▁올랐	-11.9959
▁여겨지	-11.9959
▁버려야겠다	-11.996
▁년	-11.9961
▁될꺼야	-11.9961
▁치루	-11.9962
▁모아오라	-11.9964
▁잡았다고	-11.9964
▁짜릿	-11.9966
▁해보던지	-11.9967
▁창작	-11.9971
▁800	-11.9974
▁스티	-11.9975
▁사오겠습니다	-11.9976
차이	-11.9978
▁포천	-11.9979
▁있느	-11.9981
▁도망치	-11.9984
▁우울해	-11.9985
▁어이	-11.9985
▁달랬	-11.9986
▁이러는것	-11.9988
▁미친거	-11.9988
▁부르라고	-11.999
▁찍어놨	-11.9991
▁까야지	-11.9992
▁가보세요	-11.9992
▁장례	-11.9993
▁타겠다	-11.9993
▁쥐마	-11.9995
▁불능	-11.9996
▁친하지	-11.9996
▁세팅	-11.9996
▁살았나	-11.9996
▁섞기	-11.9997
282	-11.9999
졌잖아	-12.0001
▁끼어	-12.0003
▁도망쳐	-12.0004
▁잡혀	-12.0005
▁나빠진다	-12.0006
광오	-12.0006
▁애기야	-12.0007
▁먹겠다	-12.001
▁나눈	-12.0011
▁미치는지	-12.0012
▁알려주는데	-12.0012
▁싸우기	-12.0015
▁공손	-12.0016
96	-12.0016
▁조심할게요	-12.0016
▁베른	-12.0017
▁과민	-12.0028
▁되어있고	-12.0028
▁죽인거	-12.0029
▁풀어라	-12.0036
▁마십	-12.0037
▁부적절	-12.0039
▁때린다	-12.0039
▁죽었	-12.0039
▁해오세요	-12.004
▁안좋으	-12.004
▁제자리	-12.0041
▁낀	-12.0042
▁록	-12.0044
▁뚫어	-12.0044
▁안타깝네	-12.0045
▁끄지	-12.0045
▁안쓰럽지	-12.0046
▁비싸다	-12.0048
팰거	-12.0048
▁악화	-12.0049
▁해주는건데	-12.0052
▁철저	-12.0053
▁지껄	-12.0055
▁나갈수	-12.0058
▁강해지	-12.0059
▁끼친	-12.006
▁무신	-12.0062
▁뺏은	-12.0063
▁화려	-12.0067
▁잘나간다	-12.0069
▁돋아	-12.007
▁갈께요	-12.0072
▁썩어	-12.0072
얘	-12.0073
▁미쳤습니다	-12.0073
▁저항	-12.0075
▁망가지	-12.0077
▁리더	-12.0078
▁힘들었	-12.0079
▁두던가	-12.0083
▁음침	-12.0083
▁장바	-12.0084
▁사오신거	-12.0084
▁지느	-12.0085
▁Ti	-12.0086
▁드리죠	-12.0091
가자	-12.0091
▁화났어	-12.0093
▁가네	-12.0095
았잖아	-12.0098
▁잘산다	-12.0102
▁하이고	-12.0105
▁갱	-12.0108
▁줫	-12.0108
▁셰	-12.0108
▁왓	-12.0108
▁캄	-12.0108
▁윈	-12.0108
▁대승	-12.0111
▁이루어지는	-12.0118
▁예뻐졌	-12.0119
▁재밌는데	-12.0122
▁아니라구요	-12.0123
▁불과	-12.0124
▁오락	-12.0124
▁아픈거	-12.0124
▁종업	-12.0125
▁찍는데	-12.0125
피피	-12.013
▁날씬해야	-12.0133
▁고소하	-12.0133
▁들어온거냐	-12.0133
▁설렁	-12.0136
▁무관	-12.0137
▁마실게	-12.0138
▁출렁	-12.0139
▁가지고와	-12.0145
▁찾아온	-12.0146
▁무겁다	-12.0147
bur	-12.0151
안함	-12.0151
들어	-12.0151
▁있자	-12.0155
▁날카	-12.0155
▁원망하지	-12.0157
오물	-12.016
와라	-12.016
▁무사한	-12.0162
▁허전	-12.0164
▁리얼	-12.0165
▁부당하다	-12.0167
▁먹으려	-12.0169
▁지쳤다	-12.0174
▁줄여	-12.0177
▁버리겠다고	-12.018
▁ph	-12.0181
▁불안해주	-12.0182
▁찝찝하	-12.0182
▁하셔야지	-12.0188
▁넘겨주	-12.0189
릴꺼	-12.0192
▁살려주지	-12.0193
▁킬	-12.0194
▁알아봐	-12.0194
▁만나는거	-12.0195
▁대포	-12.0195
낼게요	-12.0198
▁찍히	-12.0199
토리	-12.0201
▁드리려	-12.0202
▁벌어다	-12.0203
▁산거라	-12.0205
▁불쌍하지	-12.0205
▁위법	-12.0209
uch	-12.021
▁사기치	-12.0211
▁쳐지	-12.0212
▁사귀냐	-12.0215
▁후미	-12.0218
▁내버린다	-12.022
▁딴데	-12.0221
▁두란	-12.0224
물어	-12.0224
▁했던거	-12.0226
▁죽여야	-12.0226
만은	-12.0227
▁내주셔야	-12.0233
▁자신있	-12.0234
▁아쉬	-12.0236
▁미안하다면	-12.0237
▁쓰러지	-12.0237
▁들어오신	-12.0239
▁민간	-12.0242
는대로	-12.0249
▁어렵다고	-12.0249
▁지우지	-12.0251
싶	-12.0252
▁넘었잖아	-12.0255
ol	-12.0255
▁알아봤어	-12.0256
▁도야	-12.0256
▁흥분했	-12.026
▁비우는	-12.026
▁비거	-12.026
▁좋아한다는	-12.0261
▁집사	-12.0266
▁아쉽네	-12.0266
줄테니	-12.0266
▁까마	-12.0268
▁어울릴거	-12.0268
▁토나오	-12.0268
▁깄	-12.0274
▁마시라고	-12.0277
져야	-12.0278
▁들어있	-12.0279
▁두통	-12.0284
ze	-12.0286
▁형민	-12.0288
▁쓸데	-12.0291
해도	-12.0292
▁안되세요	-12.0294
하셨	-12.0296
▁가디	-12.0297
▁다녀올게	-12.0298
▁물어봐요	-12.0298
▁살펴	-12.03
▁서울시	-12.0302
▁되는줄	-12.0306
▁해드린	-12.0307
센티	-12.0315
▁가봐야지	-12.0315
와주세요	-12.0315
▁들어가니	-12.0325
▁사립	-12.0332
▁기다릴게	-12.034
▁늘리	-12.034
▁생겨나	-12.0341
▁물러	-12.0342
▁흐르	-12.0344
▁넘길게	-12.0347
▁먹히는	-12.0348
▁쳐지는	-12.0349
하셔	-12.0352
▁갚을꺼	-12.0353
▁고급스러	-12.0356
말을	-12.0359
▁로마	-12.0362
▁했다구	-12.0363
▁목격	-12.0365
▁어짜	-12.0367
겟습니다	-12.0372
ou	-12.0374
▁않겠어요	-12.0375
▁193	-12.0376
▁꼬리쳐	-12.0377
가세요	-12.0377
▁떼지	-12.0378
▁소매	-12.0381
▁거두는	-12.0382
올래	-12.0388
▁wa	-12.039
▁다닐께	-12.039
▁하겠네요	-12.0394
야하나	-12.0396
▁계란	-12.0397
▁아니여	-12.0398
▁뒤져야	-12.0398
▁짠데	-12.0403
너무	-12.0403
▁감미	-12.0411
▁내신거	-12.0413
▁끓는	-12.0415
▁쳐져	-12.0415
▁쳤잖아	-12.0416
▁이뻐지	-12.0425
란드	-12.0442
▁유산	-12.0443
▁넘어가지	-12.0443
▁그만두시	-12.0449
▁들어왔는	-12.0452
꼭	-12.0456
키면	-12.0456
▁나오나	-12.0457
▁나왔잖아	-12.0458
겠	-12.0466
▁끓이	-12.0467
▁원하는거	-12.0468
▁수족	-12.0474
▁사오기	-12.0478
▁쌓이	-12.0481
▁예비	-12.0485
▁빌려줄거	-12.0491
▁다가가는	-12.0494
▁비싸지	-12.0498
▁해있는데	-12.05
자면	-12.05
▁신선	-12.0501
▁흐흑	-12.0504
▁이적	-12.0505
▁입었는데	-12.051
우리	-12.0511
▁괜찮다는	-12.0515
▁살빼야	-12.0515
▁한눈	-12.0516
▁비슷하잖아	-12.0522
▁돌아오는	-12.0522
▁성공할	-12.0526
▁받아라	-12.0531
▁걸린거	-12.0531
▁사라지는	-12.0533
▁뛰는거	-12.0537
▁좋았어	-12.0539
▁치지말	-12.0541
이라고	-12.0541
▁가천	-12.0543
▁다루는	-12.0557
▁하시니	-12.0559
▁부탁드리	-12.0561
▁서두르는	-12.0563
▁반갑다	-12.0565
▁일못	-12.0568
추측	-12.057
트릴	-12.0572
▁어떻겠	-12.0572
ter	-12.0585
▁해올	-12.0587
▁잡히	-12.0588
▁꿔	-12.0603
▁쳐다보는	-12.0608
▁봉사	-12.0614
해서요	-12.0616
▁기대했	-12.0619
▁들었다고	-12.0623
나옵니	-12.0628
▁야무	-12.0636
▁샀는	-12.0637
▁들어갔다	-12.0643
▁어렵냐	-12.0646
▁나쁜가	-12.0652
▁하길	-12.0658
▁들어가기	-12.066
▁싸우다	-12.0663
박해	-12.0663
▁바람났	-12.0663
▁따라와요	-12.0667
▁빌려줄거면	-12.0669
▁적응	-12.0671
▁디질	-12.0675
▁띄지말	-12.0679
▁책임져야	-12.0682
▁놀았	-12.0684
▁뭐라하	-12.0689
▁안된다면	-12.069
▁가는건	-12.0691
십시요	-12.0692
▁주웠는	-12.0697
▁늘어	-12.0701
▁잘려	-12.0701
▁따라오던	-12.0706
▁맞을까	-12.0707
▁모르는거	-12.0707
▁않을거	-12.071
▁많으시	-12.071
▁어떻게	-12.0711
▁힘내	-12.0711
▁안든다	-12.0711
▁급하신	-12.0711
▁부조	-12.0711
▁마시고요	-12.0717
▁하노	-12.072
▁만나네	-12.0736
▁올꺼	-12.0743
을거면	-12.0744
▁지루	-12.0746
▁뽑아오	-12.0753
▁쾌	-12.0757
▁지칠	-12.0768
▁나을	-12.0768
▁기름	-12.0769
▁Ja	-12.0775
▁올려놓으	-12.0776
▁싫어하는거	-12.0787
▁미디	-12.0789
▁섬	-12.079
▁긁어	-12.0791
▁뛰지	-12.0795
학자	-12.0803
▁스무	-12.0807
▁하버	-12.081
▁하지말아야	-12.081
그런	-12.0811
▁열어야	-12.0813
▁되냐고	-12.0816
59	-12.0819
▁않았으	-12.082
▁들렸다	-12.082
아놓	-12.0821
나와	-12.0829
▁사실이잖	-12.0832
▁주도한	-12.0832
▁들아	-12.0844
을테니까	-12.0846
▁막장	-12.0868
▁경위	-12.0878
▁태워주	-12.0878
▁어색하	-12.0883
▁그렇네	-12.0884
▁얻으려	-12.0885
▁그러시는거	-12.0893
▁피곤	-12.0893
버릴거야	-12.0896
▁원할	-12.0898
▁원해	-12.0902
▁방아	-12.0908
▁멍청하	-12.0908
▁보이려	-12.0911
했을	-12.0918
▁할줄아	-12.0919
▁수강	-12.0921
▁사주셔	-12.0922
안해	-12.0923
▁자의	-12.0927
▁불렀는	-12.0938
▁돌아가신	-12.0947
▁자라는	-12.0949
을게	-12.0952
eme	-12.0955
▁해주겠다는	-12.0956
▁쉬었어	-12.0957
▁하시는데	-12.0958
▁들였	-12.0959
▁있구	-12.0965
IC	-12.0971
▁찾으시	-12.0971
▁도와준다	-12.098
▁생사	-12.0981
▁안좋네	-12.0981
▁모스	-12.0984
▁아까우	-12.0994
놓으시고	-12.0994
▁말아주십시	-12.0995
▁많았어	-12.1002
i	-12.1016
▁미안하다는	-12.102
▁가만두	-12.1025
▁밝히는	-12.1027
▁고향	-12.1033
▁조심해야하는	-12.1035
▁밥상	-12.1045
▁치어	-12.1056
▁Be	-12.1056
▁되는가	-12.1057
▁몰아가지	-12.1061
▁모래	-12.1066
▁어렵네	-12.1069
▁감금	-12.1077
약한	-12.1085
▁나대지	-12.1092
▁놀게	-12.1092
▁고쳐줘	-12.1093
▁낼거	-12.1093
▁선보였	-12.1096
▁밀려	-12.11
▁제니	-12.1102
▁이던	-12.1103
아가지고	-12.1103
가능하지	-12.1108
▁낸거	-12.1109
01	-12.1111
▁싫지	-12.1117
▁쫓아갈거	-12.1118
▁욕먹는거	-12.1124
▁안되는데요	-12.1128
▁너무하는	-12.1128
▁도와주려	-12.1134
▁다칠	-12.1136
▁가지는	-12.1144
▁아니였	-12.1146
▁가져갈테니	-12.1149
▁돌아보	-12.115
▁딘	-12.116
▁믿었어	-12.116
▁해주겠네	-12.1163
▁감사해야	-12.1165
하더라	-12.1166
▁지우고	-12.1167
▁걸었	-12.1172
났다	-12.1175
놔	-12.1177
▁부사	-12.1192
▁툭	-12.1193
있다고	-12.1198
▁받아가는	-12.1199
ut	-12.1202
▁겠어	-12.121
▁주겠어	-12.1211
▁될꺼	-12.1219
▁둘꺼	-12.122
시나	-12.1223
▁미워	-12.1223
▁다닐거	-12.1228
▁편하다	-12.1229
▁뱉	-12.1231
▁감아	-12.1237
▁안되는거잖아	-12.1238
▁친해	-12.1242
주는거	-12.1244
▁가줘	-12.125
▁크리	-12.1251
▁내뱉	-12.1264
▁뜨는	-12.1266
▁편하지	-12.1271
가야	-12.1272
했습니다	-12.1272
▁보내줘야	-12.1275
전화	-12.128
▁비우	-12.1283
▁안좋다	-12.1283
▁느긋하	-12.129
▁오케	-12.1293
▁깎아주	-12.1293
▁않다	-12.1296
▁주무	-12.1298
▁알라	-12.1299
가는데	-12.1299
▁딸리	-12.1303
▁써줘야	-12.1306
였잖아	-12.1328
▁같다는	-12.1332
▁웃으	-12.1333
▁적색	-12.1336
▁알아내는	-12.1352
▁겠다	-12.1354
▁뽑아가	-12.1363
라이	-12.1364
▁되고싶	-12.1364
▁같기	-12.1365
▁가지고있	-12.1365
ical	-12.1366
대성	-12.1367
▁터트	-12.1369
▁다녀오려	-12.1372
▁가시는	-12.1381
▁망쳐	-12.139
럽네	-12.1392
▁식은	-12.142
이렇게	-12.1421
▁밀렸	-12.1422
▁실리	-12.1431
셨을까	-12.1439
말야	-12.144
▁갖고있는	-12.1446
▁괴로	-12.1456
▁웃겨서	-12.1462
▁도와준거	-12.148
▁몰려	-12.1489
▁뺏을	-12.1493
▁울려	-12.1498
▁바이	-12.1504
해져	-12.1508
▁내려놓	-12.1511
▁당하셨	-12.1513
리지마	-12.1515
▁오며	-12.1518
▁답답	-12.1521
▁만났다	-12.1533
▁날까	-12.1539
▁달콤하	-12.1543
시고요	-12.1548
으려는	-12.1548
▁입생	-12.1552
할게요	-12.1552
▁보고있어	-12.1553
86	-12.1557
드립니다	-12.1558
▁멸	-12.1564
▁한동	-12.1568
▁주거	-12.1569
rac	-12.1589
▁만족하	-12.1596
▁좋아해주	-12.1597
주신다면	-12.1597
▁죽을것	-12.1611
했	-12.1617
이네	-12.1621
▁쓰던	-12.1626
크로	-12.163
▁맡았다	-12.1634
▁할거요	-12.1635
▁지켜줄	-12.1637
같	-12.1646
▁나오니	-12.1653
ma	-12.1654
▁오만	-12.1658
▁커진	-12.1658
▁어떤지	-12.1659
▁낮아	-12.166
꺼니까	-12.1662
▁믿으	-12.1662
▁만든건	-12.1662
▁신성	-12.1671
app	-12.1674
▁받으셔	-12.1677
았나	-12.1686
▁비웃	-12.1698
▁살려요	-12.1702
정말	-12.1705
▁필요한거	-12.1726
▁f	-12.1729
▁사다주시	-12.173
▁엎어	-12.1735
▁냅니다	-12.1762
래라	-12.1764
▁할것이	-12.1776
▁흥분하	-12.1779
▁내셔	-12.1787
▁죽을게	-12.1796
▁돌아오지	-12.1807
▁써오	-12.1816
▁살면	-12.1822
만두	-12.1822
▁져야	-12.1832
하다는	-12.1836
▁운운	-12.1837
ai	-12.1844
▁빠졌다	-12.1845
▁지나치다	-12.1856
▁쑤시	-12.186
▁살던	-12.1864
▁브리	-12.1867
▁린	-12.1868
▁하시나	-12.1875
▁전화해야	-12.1877
si	-12.1883
▁시끄럽네	-12.1902
▁놀아야	-12.1903
둬	-12.1909
▁걸친	-12.1911
▁가난하지	-12.1914
▁해보자는	-12.1915
▁다녀왔어	-12.192
두고	-12.1939
▁내리시	-12.1949
▁그렇군	-12.195
▁정주	-12.1965
▁래서	-12.1968
▁되었어	-12.1973
vi	-12.1976
했는지	-12.1978
▁같다	-12.199
▁배웠지	-12.1998
ne	-12.2005
리오	-12.2046
드리겠습니다	-12.2049
▁틀렸	-12.2052
▁받자	-12.2058
▁몰리	-12.2067
▁귀하	-12.207
▁춘	-12.2074
▁보시기	-12.2075
▁데려오라	-12.2078
▁이러냐	-12.2105
▁물어보는거	-12.2108
▁놓으라고	-12.2109
▁알거	-12.2109
▁깔았	-12.2109
아몬	-12.2119
쓰	-12.2123
웠다고	-12.2125
▁맞춰주	-12.2128
▁알아보시	-12.2132
▁몬	-12.2136
▁심하네	-12.2144
▁퍼뜨릴	-12.2153
면허	-12.216
▁않을거라	-12.2164
▁더운	-12.2166
어설	-12.2169
wa	-12.2173
했나	-12.2173
ro	-12.2181
없습니다	-12.2183
▁챙겨야	-12.2183
키라	-12.2199
▁Ne	-12.2208
인지	-12.223
가려면	-12.2233
기면서	-12.2233
▁받았는	-12.2237
▁좋아하나	-12.2247
▁김유	-12.2257
있고	-12.2271
▁해가지고	-12.228
▁받았잖아	-12.2284
▁없어졌	-12.23
▁간소	-12.2304
ith	-12.2308
있냐	-12.2317
▁남부	-12.2321
68	-12.2322
▁치겠다	-12.2325
▁고소한	-12.2333
▁누워있	-12.2337
ite	-12.2343
▁먹거	-12.2353
▁Cla	-12.2354
▁대는	-12.2358
했으니	-12.238
▁꺼져요	-12.2382
트레일	-12.2386
▁힘들겠	-12.2395
▁던지	-12.2405
▁듣던	-12.2406
▁큐	-12.241
으시	-12.2417
▁죽이겠	-12.2418
▁복잡	-12.2419
▁작다고	-12.2424
▁날라	-12.2425
해졌어	-12.2427
▁만든거	-12.2438
▁사라지	-12.2442
▁Li	-12.2447
▁건네	-12.245
미야	-12.2451
차리겠구나	-12.2453
▁깠	-12.2455
페	-12.2457
▁communicat	-12.2457
▁빼줄	-12.2461
▁나올텐	-12.2462
u	-12.2466
▁덜어	-12.2474
▁삼아	-12.2482
▁돌아왔	-12.2504
▁보여줘야	-12.251
▁크로	-12.2517
▁갚지	-12.2528
줄거면	-12.2536
송합니	-12.2537
▁수원	-12.2539
해지	-12.2545
▁시원	-12.2551
ish	-12.2552
▁짜증나게하	-12.2554
▁다가오는	-12.2555
▁서서	-12.2556
든건	-12.2558
▁거친	-12.256
▁해주시고	-12.2566
▁일하	-12.2572
▁지켜주	-12.2576
▁이뤄	-12.2578
▁신아	-12.2618
▁쉬려	-12.2626
▁뭐라는	-12.2631
▁빼야	-12.2633
▁다이아	-12.2634
▁할건	-12.2652
노비	-12.2653
들고	-12.2657
▁끼어들	-12.266
▁너무하잖아	-12.2674
▁써주는	-12.2679
▁함께하	-12.2681
▁넘으	-12.2692
▁예민하다	-12.2696
▁바꾸었	-12.2698
▁걷지	-12.2706
▁된다니까	-12.2707
▁잡았는	-12.2715
▁따라하면	-12.2717
정상	-12.2722
보도	-12.2727
▁해주려	-12.2728
▁밀려있	-12.273
신다고	-12.2744
▁흐리지	-12.2751
▁다르네	-12.2757
▁자라	-12.2759
ty	-12.2767
▁건드린	-12.2772
▁먹겠	-12.278
회사	-12.279
▁상관없다	-12.2793
등록	-12.2805
▁태어나지	-12.2808
▁막을	-12.2809
줄수있	-12.2815
라미	-12.2819
▁먹고싶어	-12.2823
▁되거든	-12.2823
▁웃지	-12.2834
트려	-12.2835
▁이런다	-12.2843
계약	-12.285
▁다양할	-12.2856
▁봐줄테	-12.2861
▁않을게	-12.2866
▁충실	-12.2866
▁놀릴	-12.2874
내야	-12.2876
▁느긋	-12.2877
었을텐데	-12.2877
▁고맙지	-12.2883
했잖아	-12.2891
줄수	-12.2896
는거라	-12.2904
▁안남았	-12.2907
▁지르지	-12.2912
▁이겼	-12.2918
▁괜찮나	-12.2919
같을	-12.2927
상담	-12.2935
딘	-12.2936
있니	-12.2937
▁받아줄	-12.294
▁일어나면	-12.2942
▁찔리니	-12.2942
▁달려있다	-12.295
▁먹일	-12.2952
셨지	-12.2952
발리	-12.2962
▁찢어지	-12.2965
남자	-12.2974
▁찾지	-12.2975
▁사주는	-12.2977
ors	-12.2985
▁놀렸	-12.299
▁묻는거	-12.2992
다니라고	-12.3004
하라고	-12.3012
▁돌려줄거	-12.3016
▁차가운거	-12.3017
날수	-12.3026
▁써놓	-12.3028
at	-12.3034
▁나와있는	-12.3036
▁기르	-12.3045
바보	-12.3048
▁들어있어	-12.3056
돼	-12.3058
하시네요	-12.3058
▁되었으	-12.3065
▁돌리지	-12.3081
전하	-12.3081
였을	-12.3082
▁달라지겠	-12.309
▁테이	-12.3106
▁한명	-12.311
▁sa	-12.3124
ef	-12.3141
▁내줘야	-12.3159
▁파스	-12.3171
▁빌게	-12.3179
엉	-12.3183
▁알린다	-12.3186
▁망가	-12.3196
되는거잖아	-12.3206
신경	-12.3211
▁까칠	-12.3215
▁가버렸	-12.3217
▁010	-12.3221
▁똑똑해	-12.3224
있	-12.3226
저런	-12.3231
▁뛰었	-12.3238
▁차는	-12.3238
▁찰	-12.3239
젠	-12.325
글자	-12.325
▁만든다	-12.326
▁입을게	-12.3261
다른	-12.327
▁이러실	-12.3271
▁따질	-12.3276
▁달린거	-12.3281
▁만들어야	-12.3285
▁올릴꺼	-12.3287
▁들리셨	-12.3299
▁맡기는	-12.33
▁잃는	-12.33
오느라	-12.3304
▁챙겨가	-12.3305
ace	-12.3306
▁되시	-12.3308
▁줬구	-12.3317
아니고	-12.3317
넣어	-12.3319
이스	-12.3329
▁빌리지	-12.3339
둘	-12.3346
▁하구	-12.3347
▁알리	-12.3347
먹었	-12.335
가족	-12.3359
▁불안정	-12.336
한지	-12.337
았을	-12.3373
▁조용하	-12.3376
한것	-12.3395
▁해보자는거	-12.3396
▁미치겠	-12.3423
큼	-12.3423
하겠다	-12.3449
▁재개	-12.3453
▁끊지	-12.3453
tri	-12.3455
가려고	-12.3456
실텐데	-12.3461
ss	-12.3479
▁참았다	-12.35
▁무안	-12.3501
▁떠나는	-12.351
시원	-12.3515
▁먹이는	-12.3517
08	-12.3522
▁듣잖아	-12.3532
▁없으셨	-12.3533
▁그러셨	-12.3536
▁올려놓	-12.3541
▁물어봤	-12.3542
▁가져오시	-12.3555
긴거	-12.3559
릴꺼야	-12.357
보세요	-12.3574
▁무한	-12.3575
▁착해	-12.3584
있던	-12.3587
기에	-12.3588
기가	-12.3589
이기	-12.3607
팬	-12.3607
▁원가	-12.362
▁할텐	-12.3621
인공	-12.3623
▁못자겠	-12.3625
▁들어가지	-12.363
▁놀리지말아	-12.3634
▁하기전	-12.3635
▁먹을거	-12.3637
▁빠지지	-12.3641
▁보셨	-12.3642
삭	-12.3643
▁튀었	-12.365
▁사실이	-12.3674
▁봐주지	-12.3684
▁헤어졌는	-12.3685
인것	-12.3691
을것	-12.3692
▁빌려줘야	-12.3696
핫	-12.3696
▁말아주십	-12.3708
15	-12.3709
뚜	-12.3715
동물	-12.372
▁핀거	-12.3728
국밥	-12.3729
철학	-12.3735
볼테니	-12.3738
▁돌리는	-12.374
소음	-12.374
▁줄었	-12.3757
▁통신	-12.3757
▁놀지말	-12.3769
M	-12.3773
▁St	-12.3781
과학	-12.3782
▁알렸	-12.3782
베르	-12.38
댓	-12.3801
염	-12.3812
였	-12.3819
싶을	-12.3828
▁버릴라	-12.3842
티켓	-12.3846
물리학	-12.3849
미디	-12.3852
뜨고	-12.3854
po	-12.3856
▁잘린	-12.3856
보로	-12.3861
조사	-12.3865
▁떨어	-12.3867
움찔	-12.3868
첨	-12.3868
먹으려고	-12.3871
첼	-12.388
흐흑	-12.3882
퍼센	-12.3886
먹여	-12.3893
형수	-12.3893
핀	-12.3898
없는데	-12.3898
▁신다	-12.3898
▁서있었	-12.3907
▁벌자	-12.3908
스토리	-12.391
▁재워	-12.3912
앵	-12.3914
젓	-12.3914
부상	-12.3914
쉐	-12.3916
눌	-12.3918
하시는	-12.3921
될	-12.3921
K	-12.3922
▁웃기잖아	-12.3924
뒀	-12.3924
▁할라	-12.3924
급한	-12.3926
폴	-12.3928
뒈	-12.3941
▁사먹으라	-12.3943
bl	-12.3944
묵	-12.3945
빗	-12.395
숲	-12.395
꽁	-12.3954
닉	-12.3954
됏	-12.3954
쌔	-12.3954
▁중요하니	-12.3955
렛	-12.3955
흙	-12.3955
▁않았을	-12.396
▁내껀	-12.396
흥	-12.3961
▁죽던	-12.3963
▁놀린	-12.3966
노동	-12.397
lo	-12.3972
▁싱	-12.3986
▁랜	-12.3988
▁찍으라	-12.3989
40	-12.3989
잼	-12.3995
▁남아서	-12.3997
▁수상	-12.3998
▁망친	-12.4002
호박	-12.4004
프란	-12.4005
▁사라진다	-12.4007
올테니	-12.4012
▁빼서	-12.4021
▁뜯는	-12.4025
▁책임지실	-12.4026
살펴	-12.4041
▁였으	-12.4046
보죠	-12.4046
▁죽일거라	-12.4047
리필	-12.4054
▁돌아가시	-12.4068
될꺼	-12.4069
nfi	-12.4085
▁어색	-12.4101
▁주고받	-12.4123
▁시킨건	-12.4126
les	-12.4139
▁빌렸다	-12.4141
id	-12.4143
▁지겹	-12.4148
▁갖고싶	-12.4157
수있어	-12.4162
▁되어있	-12.417
질텐데	-12.4174
그게	-12.4181
▁찍혔으	-12.4183
▁휴게	-12.4193
▁다니겠	-12.4198
▁쏴야	-12.4202
▁팔로	-12.4207
더라고	-12.4217
st	-12.4219
▁넘어뜨	-12.4221
▁소문나	-12.4226
없어서	-12.4228
주는건데	-12.4233
▁그러던	-12.4237
그건	-12.4238
걸음	-12.4258
▁야할거	-12.4259
▁비하	-12.4263
려주시겠습니까	-12.427
프라	-12.4271
도시	-12.4274
▁준건	-12.4274
02	-12.4306
▁일자	-12.4311
▁지쳤	-12.4314
겠구나	-12.4319
보이	-12.432
기야	-12.4324
▁돼야	-12.4325
▁g	-12.4328
▁나오는건	-12.434
▁하는거냐	-12.4349
있을거야	-12.4352
la	-12.436
더러	-12.4361
봉사	-12.4369
▁700	-12.4376
▁알릴거	-12.4393
말던	-12.4405
크래	-12.4407
▁당하는거	-12.4407
었다면서	-12.4418
▁어기	-12.4418
▁불가능하	-12.4422
쳐야	-12.4441
▁쪽팔	-12.4444
▁웃었	-12.4444
울게	-12.4446
▁나오겠다	-12.4457
▁두려워	-12.4459
옵니	-12.4467
500	-12.4471
▁해주겠다	-12.4481
하십니다	-12.4483
오게	-12.4484
▁빌려줄수	-12.4487
od	-12.4493
치게	-12.4495
▁알수있	-12.4495
룬	-12.4499
▁슈	-12.4499
▁불러야	-12.4505
▁시끄럽다	-12.4507
기전	-12.4508
나야겠다	-12.451
▁화났	-12.4514
봐라	-12.4515
▁끝냈	-12.4518
▁붓	-12.4531
▁로그	-12.4536
▁돋	-12.4541
엘리	-12.4544
▁팰	-12.455
▁부족하니	-12.4552
li	-12.4553
▁안쓰럽	-12.4553
▁보던	-12.4556
▁203	-12.4557
우고	-12.456
뜨릴	-12.4564
지르	-12.4566
▁같긴	-12.4571
올수있	-12.4574
간소	-12.4575
겠더라	-12.4589
겼는데	-12.4598
ti	-12.4603
▁해야겠	-12.4609
▁살고있	-12.4612
▁않았지	-12.4616
▁부끄럽	-12.4621
▁말았어	-12.4629
릴게요	-12.4631
사인	-12.4637
▁성숙	-12.4641
▁익숙	-12.4645
▁들리니	-12.465
▁디스	-12.4656
ac	-12.4658
▁휴지	-12.466
찮은	-12.4661
ys	-12.4663
▁해줬어	-12.4668
ga	-12.4675
나가던	-12.4679
남아서	-12.4695
있던데	-12.4705
리카	-12.4711
▁떨어지는	-12.4715
▁잊혀	-12.4725
▁불러오	-12.473
르트	-12.4744
▁어긋	-12.4752
▁묻지	-12.4754
▁무례하	-12.4756
둑	-12.4759
▁떳떳	-12.4766
▁맡겨주	-12.4768
▁밝혀	-12.4768
나셨네	-12.4779
▁죽여주	-12.4784
▁드물	-12.4789
▁받아야겠	-12.4794
겼다고	-12.4796
▁바랄게	-12.4801
▁지워주	-12.4803
쁨	-12.4808
왔어	-12.4809
▁쉰	-12.4809
▁23	-12.4811
낸다는	-12.4811
▁쉰다	-12.4814
▁냄	-12.4817
▁깎	-12.4817
픈	-12.4818
겹	-12.4818
ver	-12.4819
▁좋았잖	-12.482
▁물어볼	-12.4821
▁볼테니	-12.4828
▁끌려	-12.4834
났다고	-12.4835
귄	-12.4837
▁데리고있	-12.4841
ges	-12.4842
▁못잡	-12.4843
다냐	-12.4845
▁정신차릴	-12.4848
튜	-12.4848
▁얌	-12.485
춰	-12.4852
른하	-12.4852
밌	-12.4852
▁밀지	-12.4853
▁흡	-12.4854
엽	-12.4854
▁광범위	-12.4854
▁멈	-12.4855
끗	-12.4855
estion	-12.4855
쩡	-12.4856
▁퍽퍽퍽	-12.4856
▁쑥	-12.4856
▁curren	-12.4856
▁가라앉히	-12.4856
▁갈아엎	-12.4856
떙	-12.4856
해얄	-12.4856
▁Conc	-12.4856
▁Free	-12.4856
▁Intern	-12.4856
▁Joh	-12.4856
▁individual	-12.4856
▁response	-12.4856
▁그만둘게요	-12.4856
▁끝냅시다	-12.4856
▁비쌌	-12.4856
▁살쪘	-12.4856
▁얄	-12.4856
▁지긋지긋하	-12.4856
▁쩨쩨	-12.4856
▁펑퍼짐	-12.4856
큭	-12.4856
▁없엇	-12.4856
▁번지르르	-12.4856
▁쑥덕거	-12.4856
▁Motor	-12.4856
▁깨닫	-12.4856
▁긁혔	-12.4856
▁내버릴테니	-12.4856
▁넘쳐나	-12.4856
istic	-12.4856
part	-12.4856
▁1951	-12.4856
▁창조과학	-12.4856
킄킄	-12.4856
▁eat	-12.4856
▁되돌아보	-12.4856
liz	-12.4856
▁그만둘거	-12.4856
▁씨부렸	-12.4856
▁촌스럽	-12.4856
▁Ground	-12.4856
roduc	-12.4856
▁바꾼다	-12.4856
▁좋아지셨잖아	-12.4856
▁전자통신	-12.4856
▁조용해지겠	-12.4856
▁치졸하	-12.4856
rnh	-12.4856
▁무례하시네요	-12.4857
▁묻어놨	-12.4857
▁고통스러워	-12.4857
▁relat	-12.4857
▁섬세하	-12.4857
▁뺐어가	-12.4857
ud	-12.4857
▁눕히	-12.4857
▁싱싱	-12.4857
▁집어치워	-12.4857
▁줄임말	-12.4857
cation	-12.4857
▁멀뚱	-12.4857
▁쓰다듬	-12.4857
▁틀림없	-12.4857
▁Wi	-12.4857
▁찾아낸다	-12.4857
▁부러뜨릴	-12.4857
▁어길시	-12.4857
▁없앨	-12.4857
▁무더운	-12.4857
▁버틴다	-12.4858
▁좀하려는데	-12.4858
▁화이팅	-12.4858
▁뜨끔	-12.4858
▁원치않아	-12.4858
▁주물러	-12.4858
▁괴롭힌	-12.4858
▁쫓아다니	-12.4858
▁칙칙	-12.4858
▁올려놓을게	-12.4858
▁어땠을	-12.4858
▁데려온거	-12.4858
▁돌린거	-12.4858
▁무너질	-12.4858
▁뭣같	-12.4859
▁쉬어가면서	-12.4859
▁일러줘야	-12.4859
▁챙겼	-12.4859
▁Lo	-12.4859
▁운전면허	-12.4859
▁쳐다본	-12.4859
▁켜져	-12.4859
alk	-12.4859
▁켰다고	-12.4859
▁Bo	-12.4859
▁걸렸었	-12.4859
▁짧았습니다	-12.4859
▁땡큐	-12.4859
▁삐죽	-12.486
▁Per	-12.486
▁도망간거	-12.486
▁들어주겠냐	-12.486
▁이러시는거예요	-12.486
▁Ka	-12.486
▁어려웠	-12.486
▁입혔	-12.486
▁좋아져	-12.486
▁도망간다	-12.486
▁서두르겠습니다	-12.486
tain	-12.486
▁새치혀	-12.4861
▁멍멍	-12.4861
▁잊혀진다는	-12.4861
▁흥미	-12.4861
▁안쓰러	-12.4861
▁넘어가주실	-12.4861
▁중얼거	-12.4861
▁비었구	-12.4862
▁feel	-12.4862
▁GN	-12.4862
cc	-12.4862
▁잃어버린	-12.4862
▁돌려주십시오	-12.4863
▁입어봐	-12.4863
▁173	-12.4863
cha	-12.4863
▁뵙겠습니다	-12.4863
▁유쾌	-12.4863
▁어린아이	-12.4863
▁쓰러져	-12.4863
▁남겼	-12.4863
▁광범위하게	-12.4864
▁사가셨	-12.4864
▁구약성	-12.4864
▁살릴래	-12.4864
▁죽는것보	-12.4865
빠딱	-12.4865
▁가능하시다	-12.4865
▁흔들림	-12.4865
▁씻는다고	-12.4865
▁계셨던	-12.4865
▁Dis	-12.4865
▁떨어뜨린	-12.4866
▁Ga	-12.4866
하지뫄	-12.4866
▁졸고있	-12.4866
▁뽑아야겠네	-12.4866
▁스벅	-12.4866
▁했잖	-12.4866
▁갇혀	-12.4867
껌뻑	-12.4867
▁바뻐	-12.4867
▁비참해	-12.4868
▁긴밀	-12.4868
▁묶여	-12.4868
ls	-12.4868
▁2006	-12.4868
▁나불대	-12.4868
▁촌스러워	-12.4869
있을꺼	-12.4869
아이	-12.4869
지뫄	-12.4869
▁토나와	-12.4869
▁거슬린다	-12.4871
▁씻었는데	-12.4871
▁잘알고있	-12.4872
▁4000	-12.4872
▁부서진다	-12.4872
▁필승	-12.4872
▁가르칠	-12.4872
흐읍	-12.4872
▁미뤄진	-12.4872
▁가만둘	-12.4872
너덜	-12.4872
▁저질렀	-12.4873
▁챙겨줘야하	-12.4873
▁딱딱하지	-12.4873
▁넣으시면	-12.4873
▁됐을까	-12.4873
놓을거야	-12.4874
▁격	-12.4874
▁돋보	-12.4874
▁알뜰	-12.4875
▁알아차리	-12.4875
▁밝혀내	-12.4875
▁머릿	-12.4876
▁들어갈게요	-12.4876
▁꺼낼	-12.4876
▁보여줄께	-12.4877
▁맞춘	-12.4877
▁어리석	-12.4878
▁삼십	-12.4878
▁무관심	-12.4878
▁typ	-12.4878
▁루이비	-12.4879
▁붙였	-12.4879
▁자른다	-12.4879
▁해보시던지	-12.4879
▁뿌러	-12.4879
▁부담스러워요	-12.4879
tor	-12.488
▁치켜	-12.488
▁들고다니네	-12.488
▁낼꺼	-12.488
▁사라져줄게	-12.488
▁갈아입	-12.488
▁믿으세요	-12.4881
방긋	-12.4881
▁깨워	-12.4881
▁꾸민	-12.4881
▁섞여	-12.4882
▁Sa	-12.4882
▁된거냐고	-12.4883
▁갚아주면	-12.4883
▁탁해	-12.4884
▁크리스	-12.4884
▁살렸다	-12.4884
▁덤비	-12.4884
lei	-12.4885
▁낮추	-12.4885
▁아닐테	-12.4885
▁헛튼	-12.4886
▁꼴찌	-12.4887
▁발렌	-12.4887
러져	-12.4888
▁부를테니까	-12.4888
▁잊어버리	-12.4888
▁하십시	-12.4888
▁갖다와	-12.4889
▁후려줘	-12.4889
▁잊혀졌	-12.4889
▁지저분해	-12.489
▁찌르려고	-12.4891
▁늘어난	-12.4892
▁쏟았	-12.4892
▁탄산	-12.4893
투덜	-12.4894
굽신	-12.4896
▁빌려가셨잖	-12.4897
▁벗지마	-12.4897
▁나쁠	-12.4897
▁너무하대	-12.4898
▁놀아줘	-12.4899
▁이끌	-12.4899
깁니다	-12.49
▁망하는거	-12.49
▁아쉬워	-12.4901
▁이러셔	-12.4901
다줄께	-12.4902
▁오시는거	-12.4902
▁되려	-12.4902
▁싫으니	-12.4903
▁술퍼	-12.4904
▁외로우	-12.4906
▁맡아줘	-12.4907
▁물러나	-12.4907
▁나떄	-12.4907
▁지어내	-12.4908
▁짜증난다	-12.4908
int	-12.4908
▁원망해	-12.4908
▁욕먹이	-12.4908
▁늘어났	-12.4909
▁34	-12.4909
▁해오던가	-12.491
▁비켜주시	-12.491
▁웨스	-12.4911
▁꼬셔	-12.4912
▁두꺼워	-12.4912
▁계셨네	-12.4912
▁않았을거	-12.4913
디럭	-12.4913
▁챙겨줘	-12.4914
▁들렸다가	-12.4914
▁헤매	-12.4914
▁진실되	-12.4914
▁실리오	-12.4915
▁약해지는	-12.4918
▁뺏기	-12.4921
▁어떡하긴	-12.4922
▁안되겟	-12.4922
▁쓸텐데	-12.4922
▁말아주십시요	-12.4923
▁부당해	-12.4923
▁하셨는지	-12.4924
▁복잡해	-12.4924
▁취득	-12.4924
▁기울이	-12.4925
▁늦은것	-12.4925
▁exp	-12.4926
▁넘어갔	-12.4927
▁이끌어내	-12.4927
▁당돌	-12.4928
▁어울	-12.4928
▁위험해져	-12.4929
▁빼준거	-12.4929
▁괴롭히라고	-12.493
▁찔릴	-12.493
▁애매	-12.4931
▁찌발	-12.4931
▁돌려줄거지	-12.4932
▁말씀드려야	-12.4933
▁이어졌	-12.4933
▁복잡한데	-12.4934
▁엄격	-12.4934
▁시원해	-12.4935
▁비꼬는거	-12.4935
▁쫓아오	-12.4935
▁참겟	-12.4936
▁비키세요	-12.4936
▁적혀있는	-12.4937
▁끌려가	-12.4938
▁110	-12.4938
▁받는건	-12.4939
▁투명	-12.4939
▁해말게	-12.494
▁하지말아줘	-12.4941
▁시켰습니다	-12.4941
▁남겨오라	-12.4941
▁말씀드리겠습니다	-12.4942
▁고르시	-12.4942
른다는	-12.4944
▁쉰다고	-12.4945
▁꺾을	-12.4946
▁확실합니다	-12.4946
▁떳떳해	-12.4947
▁입고있는	-12.495
▁불행하게	-12.4951
▁105	-12.4952
▁닦을	-12.4952
▁청산	-12.4953
▁식충	-12.4953
▁들리세요	-12.4953
▁둬야	-12.4955
VID	-12.4955
평하게	-12.4955
▁끊으면	-12.4955
▁길어	-12.4957
▁끌어내	-12.4958
▁피어나	-12.4958
▁찍어주는	-12.4958
▁마주쳤	-12.4959
▁뛰어내린	-12.4959
▁가둬	-12.496
▁살찌	-12.496
▁받겠다	-12.496
▁빠져나	-12.4961
▁끝내려	-12.4961
▁멍청하게	-12.4961
▁어려워질	-12.4961
▁102	-12.4962
▁어이없	-12.4962
▁저러나	-12.4963
▁가혹	-12.4963
▁무례한	-12.4963
▁어떡하실	-12.4964
꾸역	-12.4965
▁드러	-12.4965
▁씻은	-12.4965
▁준다니깐	-12.4965
해야겠지	-12.4967
▁잠그	-12.4968
▁묻는다	-12.4969
▁해보겠네	-12.4971
▁드러내는	-12.4972
▁하셨으	-12.4973
▁너무하신	-12.4976
▁놔주면	-12.4976
▁이뻐하시	-12.4976
▁남겨주	-12.4977
▁닿은	-12.4979
▁비싸게구	-12.4981
▁조심하자	-12.4983
▁놓쳐	-12.4983
▁청계	-12.4984
▁보시는거	-12.4987
▁죽이려	-12.4988
▁밀려나	-12.4988
▁잔인하	-12.4988
▁속였	-12.4991
▁늘어나	-12.4991
▁떠든	-12.4992
재깍	-12.4994
깔짝	-12.4994
▁부를수	-12.4994
▁떨어뜨려	-12.4995
▁맞으세요	-12.4995
▁뒈지	-12.4995
▁낮은거	-12.4997
▁끝날거야	-12.4997
▁들릴	-12.4999
▁쳤어	-12.4999
▁토박	-12.5002
▁애쓰	-12.5003
▁떨어질거	-12.5004
▁사라졌	-12.5004
▁늦을수	-12.5005
▁빌붙	-12.5008
▁죄송한거	-12.5009
▁있던것	-12.501
▁가자구요	-12.5011
▁돌보기	-12.5014
▁찔렸	-12.5014
▁오길	-12.5016
▁쉬시는	-12.5018
▁피곤한	-12.5019
▁클래	-12.502
▁했던건데	-12.5021
▁놀래	-12.5024
▁관악	-12.5024
▁줄어들	-12.5025
▁풀리는	-12.5027
▁꼬매	-12.5027
▁나무라	-12.5029
▁적절합니다	-12.5031
▁받겠네	-12.5033
▁죽어줘야겠	-12.5034
▁끊어라	-12.5035
▁스럽습니다	-12.5036
▁굴러가	-12.5038
▁경찰청	-12.5039
▁알아내기	-12.504
▁즐거워	-12.5042
▁않겠냐	-12.5042
▁생겼구	-12.5042
▁끼쳤	-12.5043
▁가졌습니다	-12.5045
▁소심하	-12.5046
▁살아남	-12.5046
▁쓴것	-12.5048
▁분해	-12.5048
80	-12.5049
▁그래야만	-12.505
디언	-12.505
편하거든	-12.5051
▁같이가	-12.5052
ili	-12.5052
▁뒤진	-12.5052
▁출출	-12.5054
▁헛수	-12.5054
▁맞고싶나	-12.5054
루브	-12.5058
▁튀어나왔	-12.5059
▁덜어주	-12.5059
▁찐따	-12.506
▁혼내	-12.506
▁간지나	-12.5062
▁지킨	-12.5063
▁비꼬시는	-12.5063
▁노닥	-12.5064
▁이었던	-12.5068
▁시키셨	-12.5068
▁꼬여	-12.5068
ther	-12.507
▁때려줘	-12.5071
쉐이	-12.5071
▁막는	-12.5074
▁마신다	-12.5074
▁익숙해	-12.5075
▁잘쓰	-12.5077
▁놓는	-12.5077
▁질렸	-12.5079
▁무의미	-12.508
▁익히	-12.5081
▁가져야	-12.5081
▁모셔	-12.5082
▁버리지마	-12.5084
▁하겠소	-12.5084
▁재미있어	-12.5084
▁썩었	-12.5085
▁놓을까	-12.5086
▁할거니	-12.5087
▁끼어들었	-12.5087
▁파노	-12.5089
▁nT	-12.5091
▁내겠으니	-12.5095
▁말아라	-12.5098
▁피는거	-12.5098
▁파고들	-12.5101
▁기다릴거	-12.5103
▁지키면서	-12.5103
▁빨개지	-12.5104
▁떵떵거	-12.5104
▁대하시는	-12.5105
▁띄지	-12.5106
▁불편하시겠	-12.5107
▁누누	-12.5108
▁급격	-12.5109
way	-12.5111
▁환장했나	-12.5112
여야	-12.5113
먹어	-12.5113
유권	-12.5113
ho	-12.5116
▁데워	-12.5117
▁적혀있잖아	-12.5117
▁비례	-12.5118
▁어케	-12.5119
▁살려줄거	-12.5119
▁사러가	-12.5122
▁왔단	-12.5123
▁편한지	-12.5123
▁놀래서	-12.5125
▁끊겼	-12.5126
▁몰아	-12.5127
▁않으니	-12.5129
▁보내줘라	-12.5136
▁낮아지	-12.5137
▁하실까	-12.5138
▁잡아먹는	-12.5139
▁밟았	-12.514
▁김혜	-12.5141
▁성찬	-12.5141
▁먹을게요	-12.5142
커팅	-12.5143
▁불가피	-12.5143
▁83	-12.5144
셨다는	-12.5145
▁돋네	-12.5151
▁꼬였	-12.5152
▁가져오지	-12.5152
▁달라졌어	-12.5157
▁우는	-12.5157
▁알아야해	-12.5162
▁퍽퍽	-12.5162
▁죽어줘	-12.5163
▁앨리	-12.5163
▁성숙한	-12.5165
VI	-12.517
리겠습니다	-12.5171
▁un	-12.5173
▁버렸다	-12.5175
올께요	-12.5178
▁챙길게	-12.5181
▁가자구	-12.5182
▁악세	-12.5184
▁잡혔	-12.5184
▁망하는	-12.5185
연기	-12.5186
▁따라왔	-12.5187
푸석	-12.5189
▁전해지	-12.5191
▁받자고	-12.5192
▁불안해졌	-12.5193
▁일으켰	-12.5194
▁잡아당	-12.5196
▁멋져	-12.5199
▁웃은	-12.5201
▁해드리고	-12.5202
▁그만두게	-12.5203
▁짜지	-12.5204
▁아깝게	-12.5204
▁샀는지	-12.5207
▁따라온	-12.5207
침입	-12.5207
▁편할	-12.5209
▁쪼들	-12.521
▁낮게주	-12.5211
▁소리쳐	-12.5213
▁깍이는	-12.5218
마음	-12.5222
▁소년	-12.5225
룬다	-12.5226
▁알아봤다	-12.5226
▁비꼬아	-12.5226
▁만들래	-12.523
▁쉬어지	-12.523
▁갑갑하	-12.523
▁짤렸	-12.5233
▁지겹지	-12.5235
▁없더라고	-12.5236
▁소박	-12.5237
▁얻어먹었	-12.5238
▁가까우	-12.5239
보이겠냐	-12.5241
까슬	-12.5243
ess	-12.5252
▁입어봤	-12.5255
▁닦으라	-12.5256
▁선착	-12.5257
▁싸오	-12.5257
▁고가	-12.5259
총독	-12.5262
려줄게	-12.5262
▁아시나요	-12.5265
▁끼워	-12.5265
▁알았으	-12.5268
▁헤어진거	-12.5269
▁다녀올께	-12.5269
▁가보게	-12.527
▁먹는것	-12.5273
▁숨긴	-12.5275
토닥	-12.5287
▁d	-12.5289
우주	-12.5289
주겠다	-12.5299
▁나쁘네	-12.5299
▁불쌍하시	-12.5305
려갈	-12.5307
▁찍을게	-12.5308
▁줬었잖아	-12.5311
▁날텐데	-12.5311
rgen	-12.5315
▁지킬게	-12.5315
▁떨어뜨	-12.5315
▁믿네	-12.5317
▁가십	-12.5322
▁뚱땅	-12.5323
▁뚜벅	-12.5323
▁오래되	-12.5325
았으	-12.5329
▁실직	-12.5333
▁움직일	-12.5335
나보	-12.5337
▁받을거	-12.5341
▁주었습니다	-12.5349
▁두려워하	-12.5349
▁왔어야	-12.535
▁건방지	-12.535
▁무뚝뚝하	-12.5351
▁잔잔하	-12.5352
하려는데	-12.5353
▁부른거	-12.5355
셨겠네	-12.536
▁뜰	-12.5361
▁키득	-12.5362
▁나쁜거야	-12.5362
▁머무	-12.5364
▁물어보신	-12.5364
▁모닝	-12.5365
▁피운	-12.537
▁신고하	-12.537
▁학생회	-12.5371
쳤어	-12.5374
▁모호	-12.5377
▁스포	-12.5381
▁물량	-12.5381
▁당했다	-12.5382
▁쉬고싶어서	-12.5385
▁딱해	-12.5388
▁할테	-12.5392
▁싫으시	-12.5394
▁쓰셨	-12.5394
▁그만하고싶	-12.5405
▁깨어지	-12.5413
▁알아보게	-12.5414
▁역사학	-12.5419
bo	-12.5422
▁불편하셨다	-12.5422
따를	-12.5423
▁잡는다	-12.5431
▁들러	-12.5434
▁그렇다는	-12.5435
▁라일	-12.5435
▁배우겠	-12.5436
▁우편	-12.5443
▁무거	-12.5443
▁31	-12.5444
▁필요하거	-12.5444
▁refer	-12.5446
▁이르기	-12.5447
▁곱게	-12.545
스커	-12.5453
6789	-12.5455
▁들리는거	-12.5456
▁풀자	-12.5458
▁좋아져서	-12.5458
▁카페라	-12.5458
eri	-12.546
▁까부는	-12.5462
▁Whe	-12.5466
로비	-12.5468
을지	-12.5468
▁받아들여지	-12.5469
▁사온	-12.5473
▁퀴	-12.5474
▁되어있지	-12.5476
▁사줄수	-12.5482
▁돌봐	-12.5483
같고	-12.5488
▁더럽히	-12.5492
▁호위	-12.5495
▁들어줬어	-12.5496
▁주는건	-12.5498
어라	-12.5499
▁아프니까	-12.5502
▁뜨거	-12.5502
pa	-12.5502
▁모이는	-12.5506
▁알고있는	-12.5508
▁기꺼	-12.5508
▁들리거든	-12.551
▁사귀었	-12.5511
▁웃었잖아	-12.5512
▁잠수	-12.5513
아니에요	-12.5519
▁따지	-12.552
▁스케	-12.5526
▁혼나요	-12.5526
▁나올거	-12.5529
준하	-12.5529
▁시키겠어	-12.5532
ru	-12.5532
▁일렀	-12.5533
▁부자라	-12.5535
아니냐고	-12.5541
할거에요	-12.5541
▁pos	-12.5543
▁잡으	-12.5545
▁한심하다	-12.5551
▁Sun	-12.5551
▁드물어	-12.5552
▁뻔하구	-12.5553
▁노려	-12.5557
▁입고다니	-12.5559
줄꺼	-12.5559
▁뛴다	-12.5562
▁나뉘어	-12.5563
▁열리면	-12.5572
▁잘나셨	-12.5572
▁사주기	-12.5575
▁내줬으면	-12.5577
▁긁었	-12.5577
▁명료	-12.5579
▁든든	-12.5579
▁당하지	-12.5583
▁손댔다	-12.559
▁붓는	-12.5596
▁살고있어	-12.5603
▁가져왔으면	-12.5604
▁먹던가	-12.5606
▁떠오르	-12.5606
▁56	-12.5608
▁이겨내	-12.5609
▁가란다	-12.5609
치다	-12.5611
▁기다렸는데	-12.5613
▁조심하는	-12.562
▁지나갈게	-12.5624
▁있다는거	-12.5629
▁유로	-12.5632
▁해치지	-12.5635
▁키운건	-12.5637
에게	-12.5652
▁노란	-12.5654
▁모아지	-12.5655
▁일어나기	-12.5656
▁모터	-12.5658
▁비슷	-12.5658
▁쉐	-12.5658
▁둘거	-12.5659
건전	-12.5659
▁높으	-12.5665
▁쓴다는	-12.5667
▁미안하기	-12.567
nit	-12.5671
▁들고다니	-12.5674
▁억울	-12.5682
으려니까	-12.5686
니요	-12.5687
▁망가져	-12.5691
▁아프니	-12.5692
좋습니다	-12.5699
▁굶기	-12.5701
▁사는것	-12.5701
▁말안하	-12.5704
▁같긴하	-12.5705
▁뒈	-12.571
ann	-12.5712
▁싫어하는지	-12.5714
스카	-12.5715
하실텐데	-12.5716
▁닿아	-12.5717
▁쓰이지	-12.572
▁가까워	-12.5724
▁담아서	-12.5726
▁h	-12.5731
▁비하하	-12.5732
졌지	-12.5734
▁낳았	-12.5735
▁타야	-12.5737
▁더해	-12.5738
구사	-12.5738
▁강민	-12.5742
▁물좀	-12.5743
▁An	-12.5743
▁건드	-12.5744
▁식었잖아	-12.5752
▁버릴꺼	-12.5758
▁짜증나는	-12.5761
시구	-12.5768
▁해드릴께	-12.5769
▁끝난지	-12.5772
헤실	-12.5778
▁처절	-12.5779
▁미안하지	-12.578
▁졸렬하다	-12.578
▁잠이	-12.5784
▁잡아먹	-12.5784
▁드셨나	-12.5785
▁미지	-12.5787
▁내려주세요	-12.5791
아줘	-12.5792
▁팔어	-12.5794
18	-12.5796
▁늘려	-12.5806
하셔야	-12.5809
▁불쌍하네	-12.5812
▁가만있을	-12.5819
▁흥	-12.5819
▁벌릴거	-12.5821
특하	-12.5821
▁않으려	-12.5822
▁묵	-12.5839
▁달라진	-12.584
▁썰어줄	-12.5841
▁뒤져라	-12.5845
▁졌다	-12.5846
▁올리시	-12.5848
▁딱한	-12.5852
▁느꼈어	-12.5853
몰라	-12.5855
제트	-12.5855
▁191	-12.5858
가줄	-12.5859
▁눌	-12.5868
▁커졌는	-12.5868
기자	-12.5873
▁생길수	-12.5876
938	-12.5878
가리인	-12.5879
te	-12.588
▁달전	-12.5884
▁돌보려	-12.5886
▁오갈	-12.5895
▁독특하	-12.5895
합니	-12.5896
▁꼼꼼함	-12.5896
이니	-12.5899
▁버텨야	-12.5904
▁사라져야	-12.5907
으셨	-12.5908
▁비추	-12.5909
이제	-12.591
▁죽이자	-12.591
▁살겠	-12.5916
▁내놓던	-12.5919
▁뺏어가	-12.592
▁다셨	-12.5922
▁나가는지	-12.5925
줄수있어	-12.5927
▁첼	-12.5934
▁미친거아	-12.5935
▁달려있	-12.5938
▁했을까	-12.5938
우시다	-12.5943
▁젠장	-12.5948
▁특이	-12.5948
드러운	-12.5957
▁쌓으	-12.5963
▁챙겨오	-12.5973
▁1234	-12.5975
▁빼는	-12.5976
▁바꿔줄	-12.5978
▁건드렸다	-12.5988
▁그루	-12.5989
▁가겠	-12.5998
ada	-12.5999
aul	-12.6001
14	-12.601
▁닦아주	-12.6014
돌리시	-12.6015
▁무사할거	-12.6034
▁숨쉬는	-12.6039
▁잠들었	-12.6039
있다며	-12.6042
▁보이거	-12.6044
▁고소해	-12.6044
▁해줬어야	-12.6049
▁답답하다	-12.605
▁걷고	-12.605
▁가깝	-12.6053
▁무례하다	-12.6054
▁다녀온	-12.6057
주십시오	-12.6061
▁견고	-12.6073
▁졸렬하	-12.6077
▁받으셨	-12.6078
▁벗기지	-12.6079
▁떠들면	-12.6089
▁땡기	-12.6091
▁나약	-12.6092
▁가져가야	-12.6095
정해졌	-12.6095
▁이스트	-12.6095
▁가능하신	-12.6097
▁고약하	-12.6097
나온	-12.6099
▁칠한	-12.6109
▁엿먹	-12.6121
▁나오셔	-12.6122
▁봐주고	-12.6122
기고	-12.6123
300	-12.6124
▁센거	-12.6125
▁달라져	-12.6127
오지	-12.6127
놨는데	-12.6141
▁되겠네요	-12.6149
하였습니다	-12.6151
▁남긴	-12.6154
말아줘	-12.6156
▁대담	-12.6158
▁따라하는거	-12.6158
▁두었	-12.616
고싶	-12.617
▁살려주시	-12.6175
▁닦아놓	-12.6179
▁가져가지말아	-12.6182
잘못	-12.6189
놓을게	-12.6193
▁없다니	-12.62
▁살좀	-12.6211
▁입으셨	-12.6213
▁질텐데	-12.6214
▁수십	-12.6217
▁낼테니까	-12.6221
▁순진하	-12.6226
rds	-12.6226
▁원격	-12.6233
을게요	-12.6234
▁sti	-12.6236
되겠구	-12.6241
렸나	-12.6243
▁스토리	-12.6252
알아	-12.6253
▁얹어	-12.6254
▁외웠어	-12.6256
▁쳤다고	-12.6257
▁당한거	-12.6262
▁알거라	-12.6266
있었	-12.6267
▁미쳤군	-12.6267
▁딸리는	-12.6278
▁나왔는	-12.6289
▁빠져야겠	-12.6294
도우	-12.6294
아빠	-12.6296
한다니까	-12.63
▁억울한	-12.6302
▁넘치	-12.6309
▁자재	-12.6311
▁살리는	-12.6311
▁몰랐을	-12.6313
▁모유	-12.6313
▁열대	-12.6323
▁먹으라	-12.6329
▁급하다	-12.633
▁불편하거든	-12.6334
▁끝낸	-12.6341
▁내줬	-12.6341
▁일러줄	-12.6345
▁다녀오신	-12.6348
▁만나러가	-12.6349
받으시	-12.6352
▁되잖	-12.6353
겨야	-12.6354
▁알겠다고	-12.6367
▁걸어올	-12.6368
▁버린거	-12.6381
▁붙는거	-12.6389
▁타오라	-12.639
▁사랑스	-12.6391
▁생겼거든	-12.6399
bu	-12.64
▁줄이	-12.6402
▁맞대	-12.6403
▁오르면	-12.6419
▁망친다	-12.642
▁나락	-12.6428
▁이차	-12.6429
바비	-12.6433
▁이어가	-12.6437
▁돈벌	-12.6447
져가지고	-12.6448
▁뿌릴거	-12.6458
▁가더라	-12.6459
▁랴	-12.6461
싶지	-12.6463
ero	-12.6463
▁물어봤어	-12.6472
▁내려오	-12.6474
▁하는말이	-12.6474
▁이상한거	-12.6475
▁골라줄	-12.6478
▁앉아있으	-12.6479
▁애매하	-12.6479
em	-12.648
▁놓던	-12.6489
▁받는거	-12.6501
▁김현	-12.6501
▁펑	-12.6502
▁나란	-12.6503
▁보냈다	-12.6505
▁받나	-12.6508
▁고소할꺼	-12.6509
▁리하	-12.6511
▁다투	-12.6518
▁낮을	-12.6519
신건	-12.6533
▁Pa	-12.6542
▁참자	-12.6547
▁꼼꼼한	-12.655
립니	-12.6562
렸잖	-12.6563
sta	-12.6575
b	-12.6576
▁알려나	-12.6578
합격	-12.6581
▁졌	-12.6586
▁올라가야	-12.6594
▁쩔	-12.6597
봤거든	-12.6598
▁뛰어갔	-12.6602
하시	-12.6602
▁내준다	-12.6614
자식	-12.6614
무기	-12.6628
▁주셨어	-12.6632
▁넣자	-12.6637
받았을	-12.6637
▁대박나	-12.6645
▁빌려줄수있	-12.6651
▁깜빡이	-12.6662
▁시켜놨	-12.6674
▁차이는	-12.668
▁싫어하잖아	-12.6685
▁두어	-12.669
주자	-12.6693
▁없는건	-12.6694
▁없는대	-12.6698
주시겠습니까	-12.6702
▁당했는	-12.6702
▁기다리던	-12.6703
▁쉬겠다	-12.6705
▁세미	-12.6711
▁돌렸	-12.6711
▁나대는거	-12.6712
▁그만할	-12.6715
▁안값	-12.6717
fe	-12.6727
▁온다는	-12.6728
▁쓰니	-12.6729
았던	-12.6732
▁나대기	-12.6759
지겠지	-12.6766
▁시들	-12.6768
▁조용히하	-12.6769
▁치사	-12.6777
하던	-12.678
▁다루면	-12.6792
숙이	-12.6797
▁받아오	-12.6803
확	-12.6814
▁들어줄거	-12.6826
▁둔해	-12.6829
▁부르시나	-12.6833
78	-12.6834
▁바라는	-12.6836
갔어	-12.684
▁된다면서	-12.6842
▁좋았다	-12.6846
고와	-12.685
▁와있는	-12.6851
나이	-12.6852
▁화날	-12.6857
놓아	-12.6862
▁쌓여있	-12.6862
▁웨이	-12.6875
▁눈감	-12.6876
▁불우	-12.6885
다면서	-12.6901
셨다	-12.6901
렸는데	-12.6902
76	-12.6905
▁얻어먹	-12.6908
▁맛있었	-12.6916
▁다루어	-12.6922
좋은	-12.6925
▁불렸	-12.6926
▁나갔다오	-12.6941
▁됬나	-12.6946
나리	-12.6946
▁갚겠	-12.6949
▁괴롭혀줘	-12.695
하우	-12.6955
orma	-12.6959
▁su	-12.6963
▁다름	-12.6968
▁좋아했	-12.6969
새록	-12.6981
▁너무하	-12.6993
▁찾겠다는	-12.6997
▁치웠	-12.6999
▁줘야겠	-12.7001
▁가리	-12.7007
▁싶으시	-12.7007
▁하드	-12.7013
▁들어오냐	-12.7014
▁씻지	-12.702
▁거칠	-12.7021
▁불나겠	-12.7023
려주면	-12.7033
▁자면	-12.7036
▁묻었	-12.7039
▁달려가	-12.704
▁냈는	-12.7041
▁놔주	-12.7049
dom	-12.7052
으실	-12.7061
▁밀었어	-12.7063
▁이쁘잖아	-12.7069
▁받아내	-12.7076
▁하시다	-12.7077
▁시키시	-12.7084
▁해드릴수	-12.7085
▁들어왔네	-12.7103
▁막기	-12.7107
▁돌렸다	-12.7109
we	-12.7111
▁넘겨줄	-12.7115
▁화나는	-12.7123
▁심심	-12.7129
▁나대냐	-12.7129
말이	-12.7132
▁꺼져줄	-12.7139
▁길어지	-12.715
아닙니다	-12.7157
▁당당하다	-12.7158
거냐	-12.7162
적합	-12.7162
▁대는거	-12.7168
▁늦을	-12.7171
시게나	-12.7179
러워서	-12.7186
신거라	-12.7187
▁폈어	-12.7189
올것이지	-12.7192
내려	-12.7194
▁사라지라	-12.7196
▁자러	-12.7205
▁찾아다니	-12.7205
▁안타	-12.7209
입지	-12.7222
▁따라가야	-12.7223
▁정해져있	-12.7226
▁할거냐	-12.7228
▁기석	-12.7229
▁어떡하구	-12.7238
▁반도	-12.7241
▁벅	-12.7246
나갈	-12.725
▁터뜨	-12.725
▁달려있다는	-12.7264
▁해왔잖아	-12.7267
▁버렸는데	-12.7283
▁불안정하	-12.7289
▁였냐	-12.7293
▁하러가	-12.7293
▁많아졌	-12.7295
▁주겠네	-12.7302
▁어딨는	-12.7303
▁흥분하지	-12.7308
▁들어왔다	-12.7311
▁Ma	-12.7317
▁드문	-12.7319
▁나불	-12.732
했지	-12.7323
ub	-12.7323
▁야한다	-12.7328
▁들어갔나	-12.7332
▁앙	-12.7336
▁con	-12.734
▁안남	-12.7345
▁났다	-12.735
▁마치는	-12.735
▁없소	-12.7353
▁다쳤어	-12.736
▁찔리는	-12.7363
▁부끄러워하	-12.7363
신데	-12.7369
▁하신말	-12.7386
▁물어보셔	-12.7389
▁그나	-12.7391
라이버	-12.7395
▁성공했	-12.7427
▁드실	-12.7431
▁훔쳐가	-12.7437
되요	-12.7438
▁필요한지	-12.7444
있었잖아요	-12.7444
▁인신	-12.7448
▁나줘	-12.7451
▁돌려주지	-12.7457
▁팔리	-12.7465
기네	-12.7474
빌려줘	-12.748
▁잡아먹겠	-12.7489
▁화난다	-12.7515
▁전화한다	-12.7519
▁웃자	-12.753
▁충실하	-12.7534
▁알고있는데	-12.7542
▁되어있으	-12.7543
수술	-12.7547
▁가져다줘	-12.7567
▁해온다	-12.757
▁건방	-12.7573
▁이쁘냐	-12.7575
▁오래된	-12.7578
아라	-12.758
▁사겨	-12.7583
▁없는거네	-12.759
▁났다고	-12.7599
반도	-12.7611
▁도와준	-12.7613
▁앉았	-12.7617
가겠습니다	-12.7623
▁뛰던	-12.7631
▁끼어들어	-12.764
▁sur	-12.7641
얼른	-12.7642
▁보세	-12.7651
▁좋아하실	-12.7651
▁기다리라	-12.7662
유의	-12.7664
큰	-12.768
▁전화하지말	-12.768
먹으라는	-12.7681
▁뺏는다	-12.7699
▁골이	-12.7706
구세	-12.7713
▁능	-12.7714
▁아니었으	-12.7714
질래	-12.7725
놓을께	-12.7735
▁울렸	-12.7744
▁묻을	-12.7744
▁주던	-12.7749
▁들어주면	-12.775
하루	-12.775
▁찾아갈테니	-12.7759
부러진	-12.7761
▁빼지	-12.7764
ar	-12.7766
주는거라고	-12.777
▁해놓으	-12.7775
▁헤어지겠다	-12.7783
▁따뜻	-12.7785
▁가져가려	-12.779
▁주는데	-12.7798
다오	-12.7803
▁욕먹는	-12.7805
▁줬겠	-12.7821
▁당했	-12.7827
▁안된거	-12.7835
▁집가는거	-12.7846
음식	-12.7851
▁걸지	-12.7853
성전	-12.7858
알겠습니다	-12.7864
▁좌송	-12.7866
▁열리	-12.7875
▁있으시다	-12.7879
▁비슷해	-12.7881
거래	-12.7883
었으	-12.7885
▁부쳐	-12.7888
▁둔거	-12.789
▁살리	-12.7891
줄거니	-12.7894
좋잖아	-12.7901
▁버리고싶	-12.7912
▁됬어	-12.7914
▁조지	-12.7914
ivi	-12.7915
▁빌렸어	-12.7921
▁써야하는	-12.7929
기사	-12.7937
▁받고싶	-12.7941
▁대단	-12.7944
▁지워줄	-12.7948
▁어렵지	-12.7949
▁부르던	-12.7953
▁지진나	-12.7957
▁세세	-12.797
▁킥	-12.7983
ommunication	-12.7988
▁깠다	-12.7991
▁Lin	-12.8007
43	-12.8008
▁하도	-12.8014
▁불가능하다	-12.8015
▁작다	-12.8017
▁붙는	-12.8021
진거	-12.8032
▁끝나냐	-12.8032
▁들어오네	-12.8037
▁맡아주	-12.8039
▁들어갔잖아	-12.8039
▁하세	-12.8039
려놓게	-12.8046
▁어렵다	-12.8063
▁수요	-12.8064
▁섭	-12.8068
▁플러	-12.8069
▁돼는	-12.807
▁놔주지	-12.8077
▁시켰으	-12.808
▁나빠져	-12.8084
▁믿은	-12.8086
으셨나	-12.8091
▁늦었잖아	-12.8092
▁내려왔	-12.8098
드라	-12.8099
렀	-12.8103
▁믿을거	-12.8107
▁비슷하더라	-12.8112
없지	-12.8122
▁해치	-12.8123
치워	-12.8129
▁배야	-12.8134
▁들인	-12.8141
시는데	-12.8144
▁고소하겠	-12.8144
▁쑤셔줄	-12.8146
ha	-12.8163
▁만나든	-12.8164
▁겠니	-12.8171
드린	-12.8173
미안해	-12.8176
리스	-12.818
▁만드는거	-12.8182
▁뭐라는거	-12.8193
해가지고	-12.8203
▁내시	-12.8203
▁않으셔	-12.8218
▁j	-12.8222
▁마그	-12.8237
▁무섭지	-12.824
▁내려주	-12.8245
▁풀리겠	-12.8247
운로	-12.8256
ph	-12.826
▁들어갈거	-12.8262
▁돌려주셔	-12.8264
신고	-12.8265
▁풀어주겠	-12.8266
▁벌면	-12.8274
▁올려줘	-12.8283
▁권고	-12.8287
anit	-12.8288
▁보고있었	-12.8304
▁싫었을거	-12.8308
▁부르는거	-12.8311
▁내보내	-12.8321
▁한가	-12.8324
▁저러는	-12.8329
▁달았다	-12.8333
해졌	-12.8341
▁건전	-12.8348
▁가만있	-12.8351
▁빼내	-12.8351
친것	-12.8351
말씀	-12.8357
▁벗어나는	-12.8363
주냐	-12.837
봐야	-12.8378
▁떨어지겠	-12.8378
반들	-12.8384
편하게	-12.8395
버린다	-12.8406
ep	-12.8415
▁재미있겠	-12.8421
▁볼꺼	-12.8429
▁봐줄라	-12.843
▁만만	-12.8431
▁수상했	-12.8432
▁주겠다는	-12.8434
▁Un	-12.844
▁어떡해야	-12.8442
▁참으세	-12.8457
보겠습니다	-12.851
웠으	-12.8528
▁받겠다는	-12.853
▁이를거	-12.8545
▁갈테	-12.8547
▁남는	-12.855
▁차이나	-12.8558
▁바꾸시	-12.8564
드리면	-12.8582
▁먹을수	-12.8584
려놨	-12.8593
▁이색	-12.8606
▁버릴테	-12.8607
rle	-12.8616
지내	-12.8621
겨놨	-12.8625
▁되는거라	-12.8626
▁싫은거	-12.8638
렸네	-12.8641
레인	-12.8644
▁하셨잖	-12.8652
고싶을	-12.8654
▁씻었	-12.8655
▁드니	-12.8658
▁나잘	-12.8661
▁귀찮다	-12.867
▁먹여줄	-12.8672
▁추우	-12.871
▁뺐는	-12.8717
refer	-12.8719
▁피면	-12.8722
▁온거잖아	-12.8733
▁그렇겠	-12.8733
▁소중해	-12.8742
▁그러길	-12.875
렸어요	-12.8754
▁안되기	-12.8766
곳	-12.8768
▁넘어진거라	-12.8785
하셔서	-12.8808
▁바뀌는	-12.8809
▁세웠	-12.8816
▁했다는거에	-12.8823
▁걸리는데	-12.8834
이거	-12.8837
▁상실	-12.8853
▁거지같아	-12.8853
▁넣으셨	-12.8855
리세요	-12.8857
▁부르라	-12.8874
▁시켜줄	-12.8876
▁안져	-12.8878
▁될것이	-12.8881
기구	-12.8894
웠는지	-12.8895
▁인정받았	-12.8905
▁즐기면	-12.891
▁맡기겠	-12.8917
▁줄여주	-12.8928
▁많거든	-12.894
▁있으셨	-12.8941
▁단거	-12.8958
▁뺏길	-12.896
▁Tu	-12.8981
▁아니던데	-12.8983
▁세라	-12.8989
mat	-12.8993
▁왔는	-12.9004
▁살아왔는	-12.9011
▁발랐	-12.9019
▁죽여야겠	-12.9021
▁해오라	-12.9035
▁기르는	-12.9039
▁매트	-12.9053
▁태어나면	-12.9067
라는거야	-12.907
▁줄거면	-12.9085
▁됐으니	-12.9087
벌리	-12.9089
▁좋아하셔	-12.9092
▁쑤시는	-12.9096
▁안계	-12.9098
▁사간	-12.9102
받아	-12.9119
▁유명하	-12.9149
는군	-12.9164
▁덜했	-12.9176
적인	-12.9182
인거	-12.9201
갔	-12.9202
▁했거	-12.9218
▁미네	-12.9228
▁해보겠다	-12.9228
▁알려야	-12.923
▁Bea	-12.9232
자네	-12.9239
받	-12.9239
je	-12.924
▁이었는데	-12.9258
▁운운하	-12.9267
려줄까	-12.9271
▁필요없으니	-12.9283
▁해줬잖아	-12.9291
▁알수	-12.9297
▁없어진다	-12.9318
▁궁금할	-12.932
▁알려야겠	-12.932
▁정기	-12.9337
▁훔쳤다	-12.9337
▁달렸다	-12.935
▁느끼네	-12.9352
▁순수하	-12.9364
▁그대	-12.9367
둔	-12.9377
맘	-12.9389
▁놀리시	-12.9394
▁나오시네	-12.9396
▁풀어주시	-12.9398
개인	-12.9399
▁맞어	-12.9402
시장	-12.9413
▁냈다는	-12.9417
▁드린다	-12.9419
▁믿었	-12.9441
간건	-12.9446
▁안좋았다	-12.9453
고서	-12.9453
▁fr	-12.9455
▁되돌	-12.9467
았지	-12.9492
▁보러가	-12.9498
▁그러실	-12.9506
▁잘생긴	-12.9507
▁비정	-12.951
ome	-12.952
▁강화하	-12.953
▁차였다	-12.953
▁도와줘야겠	-12.9537
줬어	-12.9541
▁뒤지던	-12.9546
▁낳을	-12.9551
으라는	-12.9582
았으면	-12.9583
▁털었	-12.9596
찐	-12.9602
0000	-12.9608
▁보리	-12.9622
▁봐주려	-12.9623
▁조심할	-12.9645
하겠네	-12.9652
▁쓰신	-12.9675
ple	-12.9695
안하네	-12.9716
쳤	-12.9719
▁너무하시는	-12.972
▁핀다	-12.9723
▁링	-12.9726
▁되가는	-12.9726
▁안된다니	-12.9728
▁안타깝	-12.973
▁바꿀라	-12.9735
▁궁금한건	-12.9744
웠는데	-12.9759
▁내려간	-12.9768
▁신은	-12.9772
▁원한	-12.9773
ab	-12.9773
그러지마	-12.9773
▁r	-12.9787
▁다녀오라	-12.9788
▁사준다	-12.9792
하하	-12.9806
른다	-12.9826
▁옮는	-12.9836
▁급하지	-12.9839
르라고	-12.9851
▁마시겠	-12.9865
▁할려	-12.9866
뭘	-12.9866
all	-12.9889
▁시키겠다	-12.9909
▁달아야	-12.9919
▁걸어줄	-12.9939
▁구린	-12.9941
▁죽어가는	-12.9947
실거	-12.9955
▁겪으	-12.9975
인다	-12.9977
▁기다릴테니	-12.9994
대중	-12.9999
▁바치	-13
▁보내려	-13.0002
리하나	-13.0004
▁접어	-13.0011
▁나오겠	-13.0019
▁들어줘야	-13.0031
▁와있어	-13.0036
▁버시	-13.0045
▁가버리	-13.0054
해주	-13.0054
중해	-13.0076
▁싫었을	-13.0086
▁잘아	-13.0097
일거야	-13.0098
▁아리	-13.0099
거네	-13.0109
▁먹든	-13.011
▁쪽팔리다	-13.0115
한건데	-13.0117
▁걸렸어	-13.013
eo	-13.0131
▁얻어맞	-13.0136
▁쳤나	-13.0153
보는	-13.0162
가고	-13.0167
▁나가도	-13.0175
▁해봐야겠	-13.0181
▁받을려	-13.0197
놓으라고	-13.0217
린거	-13.0233
나오	-13.0241
거였	-13.0258
▁치셨	-13.0258
▁떠오	-13.0259
▁찌르라	-13.0259
▁떠올	-13.026
▁왔으	-13.0263
건강	-13.0267
없는	-13.0295
pi	-13.0306
▁탈거니	-13.0312
▁버리려	-13.0327
▁상관없는	-13.0331
▁th	-13.0338
치는	-13.034
르다는	-13.0344
▁169	-13.0361
▁올려야겠	-13.0362
지역	-13.0371
▁해보기	-13.0372
▁하신다고	-13.0374
낼테니까	-13.0375
랬어	-13.0387
자원	-13.0395
들었어	-13.0406
▁던	-13.0406
다네	-13.0406
▁울린	-13.0408
▁다를수	-13.0413
어주세요	-13.0414
메인	-13.0422
내놔	-13.0433
인간	-13.0433
▁Mi	-13.0443
▁그러는건	-13.0453
▁Ha	-13.0454
▁가주	-13.0456
친거라	-13.046
▁부른다	-13.0465
다니는	-13.0471
메리	-13.0488
▁불합	-13.049
▁싶겠어	-13.0501
▁주셔	-13.0524
▁가져갈거	-13.0546
▁화사	-13.0571
▁하다	-13.0571
▁겠네	-13.0581
84	-13.0601
▁졸렬	-13.0602
살랑	-13.0619
들게	-13.062
▁따르라	-13.0633
▁듣고싶	-13.0639
▁당연한건	-13.0641
▁떨지	-13.0641
▁카거든	-13.0657
▁찾아왔	-13.0661
ni	-13.0676
워졌	-13.068
▁망하겠	-13.068
▁떼주	-13.0692
▁성폭	-13.0696
이어	-13.0697
▁ow	-13.0697
저녁	-13.0717
▁어긋나는	-13.0727
시험	-13.0729
▁fo	-13.074
▁맞추지	-13.0766
시키	-13.0788
▁중학	-13.0804
▁vi	-13.0805
▁조심하시	-13.0809
히고	-13.0848
▁뽑은거	-13.0883
▁데리고	-13.0888
▁먹고있어	-13.0888
▁끼려	-13.0896
▁다르지	-13.0896
▁보고싶으	-13.0907
▁소중한거	-13.091
▁올테	-13.0929
▁베르	-13.0932
같습니다	-13.0934
러와	-13.094
▁온거라	-13.0941
절하	-13.0954
▁좋아질거	-13.0957
▁귀여운거	-13.0957
▁징그	-13.0963
시켜	-13.0985
▁굴다	-13.0986
27	-13.0987
켰	-13.0995
이긴	-13.1009
▁하시게	-13.1016
▁다닐게	-13.1024
▁끼치는	-13.1036
▁지날	-13.1053
▁아실	-13.1061
▁갚았어	-13.1068
잡고	-13.1085
상한	-13.1087
▁넘어진	-13.1096
질러져	-13.1114
▁간단하	-13.1115
▁태우	-13.1126
갈게	-13.1129
▁생겼으니	-13.1132
봐요	-13.1141
▁줄거	-13.1151
▁봤구	-13.1177
문의	-13.1194
▁말다	-13.1205
징거	-13.1208
▁웃으라	-13.1214
▁붙이시	-13.1215
없다고	-13.1224
하는것보	-13.1228
▁선보	-13.1229
▁수상하	-13.1248
▁대서	-13.125
할거야	-13.1251
죽여	-13.1252
▁돌려주라	-13.1258
hat	-13.126
있을까	-13.1266
책임	-13.1282
저하	-13.1283
▁나쁜거	-13.1331
▁내릴께	-13.1332
듣	-13.1339
나고	-13.1345
▁마시다	-13.1356
카페	-13.1361
▁pr	-13.1362
▁없을지	-13.1365
보라	-13.1368
▁나기	-13.1387
▁보여주라	-13.1393
주셔	-13.1398
▁물어보시는	-13.1406
문제	-13.1411
▁아닐거	-13.1419
범죄	-13.1419
▁낄	-13.142
간당	-13.1426
▁안울	-13.1433
▁주신다	-13.1448
르시고	-13.1459
으라	-13.147
▁만들어졌	-13.1476
거였어	-13.1482
싶다	-13.1482
▁싶구	-13.1485
신기	-13.1495
가기	-13.1497
▁같거든	-13.15
▁쓰다	-13.1515
있다가	-13.1517
은거라	-13.1518
▁버리하	-13.1523
집안	-13.1531
버러	-13.1534
나왔	-13.1536
▁em	-13.1537
▁돌려주실	-13.154
보자고	-13.155
▁한심하	-13.1551
냈습니다	-13.1554
주겠네	-13.1582
보인다	-13.1583
▁당하고싶	-13.1615
▁준거에	-13.1621
려구	-13.1636
하든	-13.1649
드는데	-13.1657
▁잡으시	-13.1662
매치	-13.169
▁Ca	-13.169
정리	-13.169
▁J	-13.1693
아나	-13.1696
걔	-13.1696
▁Sta	-13.1709
▁넘어진거	-13.1713
쓰면	-13.172
쾌	-13.1722
▁만들거	-13.1722
많이	-13.1725
가라	-13.173
tur	-13.1732
▁하시라	-13.1739
쳤다	-13.1744
▁그러지말아	-13.1752
▁받아가려	-13.1763
▁Ko	-13.179
▁쉬는거	-13.1794
전이	-13.1801
▁마셔야겠	-13.1803
하는거지	-13.1805
렸으	-13.1808
맞자	-13.1812
다닐	-13.1812
▁다녀오는	-13.1834
이미	-13.1838
▁먹었구	-13.1844
▁해서야	-13.1845
49	-13.1852
▁고소할거	-13.1856
▁늦게오	-13.1863
▁싫으	-13.1883
▁쳐지는거	-13.1884
맞을	-13.1886
▁갔던	-13.189
없으려니까	-13.1892
치료	-13.1892
려다	-13.1902
▁무능	-13.1907
▁그랬었	-13.1909
한다는	-13.1924
▁배운거	-13.1927
되는	-13.193
▁돌려준	-13.1938
▁혼날거	-13.1938
▁치과	-13.1939
▁쳐다봤다	-13.1957
56	-13.1961
땅	-13.1978
▁섞지	-13.1979
▁까놓	-13.1983
▁작작하	-13.1996
97	-13.1999
▁팔았는	-13.2005
넵	-13.2016
컴	-13.2016
▁가져왔으니	-13.2034
▁게다	-13.2037
▁근로	-13.2039
▁서운	-13.2041
gn	-13.2043
▁가진거라	-13.2045
▁아프겠	-13.2046
잡아	-13.2047
▁주면서	-13.2062
르디	-13.2067
▁차리라	-13.2067
▁물어보려	-13.2069
▁괜찮아지	-13.2087
없네	-13.209
▁있을수	-13.2091
▁받아가지	-13.2101
주던	-13.2106
오겠다는	-13.2106
아직	-13.2107
▁딱딱	-13.211
▁됬다	-13.2112
찍	-13.2114
타나	-13.2134
▁보여주는	-13.214
으셨던	-13.214
뜨	-13.2144
이라니	-13.2153
▁La	-13.2161
▁이러시는	-13.2162
▁해드리지	-13.2163
닥쳐	-13.2169
거고	-13.217
꿈	-13.218
심해서	-13.2193
▁Mo	-13.2194
ick	-13.2211
▁찾아오는거	-13.2212
심해	-13.2213
▁사오시	-13.2215
내줘	-13.2221
▁내셔야	-13.2222
됩니다	-13.2223
eal	-13.2227
▁따르지	-13.223
▁파라	-13.2244
▁불면	-13.2245
심하다	-13.2245
▁헤어질거	-13.2253
되었	-13.2265
붙	-13.228
▁re	-13.2288
주라고	-13.2288
▁무리하	-13.2296
음료	-13.2297
▁김정	-13.2313
에이	-13.2313
죽는	-13.2313
ous	-13.2314
▁감사하겠	-13.2314
▁보고싶었	-13.2315
els	-13.2319
▁오신거	-13.232
▁살았다	-13.2322
내시는	-13.2327
찾아	-13.2329
기저	-13.2331
▁드릴려	-13.2336
하란다	-13.2351
가던가	-13.2367
지는거	-13.2369
▁많겠지	-13.2381
하겠지	-13.2381
추고	-13.2385
utu	-13.2387
▁원망	-13.2396
▁구르	-13.2398
▁섹시하	-13.241
받고	-13.242
▁뛰어나	-13.2436
oc	-13.2447
▁달렸으	-13.245
▁끝내줄	-13.2461
▁못자	-13.2464
달라	-13.2469
▁무례	-13.2477
▁동일하	-13.2487
다는거	-13.2488
ei	-13.2488
▁배우는	-13.2494
중한	-13.2517
pro	-13.2522
쇼핑	-13.2541
▁쓰셔	-13.2546
이에요	-13.255
▁보내신	-13.2554
▁드신다	-13.2557
능력	-13.2565
아무	-13.257
▁비켜주	-13.2571
살이	-13.2573
▁독특	-13.2591
끌	-13.2598
▁되거	-13.2615
있죠	-13.2619
ica	-13.2626
▁부당	-13.2636
신다고요	-13.2642
▁걸립니	-13.2648
▁섭섭	-13.266
싫어	-13.266
놓을	-13.2665
내줘라	-13.2673
쯧	-13.2678
▁달아	-13.2682
미니	-13.2686
졸	-13.271
았다	-13.2715
▁안되어있	-13.272
었니	-13.2726
100	-13.2728
가야겠네	-13.2731
축구	-13.274
하는줄	-13.2745
어딘	-13.2756
어졌	-13.2759
친건	-13.2772
가는거	-13.2779
하늘	-13.2787
▁했겠다	-13.279
생겼어	-13.2791
▁해오시	-13.2792
짤	-13.2797
했니	-13.2803
▁되찾	-13.2811
대충	-13.2812
▁먹어줄	-13.2824
리나	-13.2831
다녔	-13.2833
▁잇는	-13.2846
▁충분하	-13.2856
tua	-13.2857
▁꼬리쳤	-13.2872
▁잘나가는	-13.2885
▁정신차리세	-13.2887
▁들었는	-13.2888
▁달려있으	-13.289
▁재활	-13.289
있었습니다	-13.2892
▁아프시겠	-13.2897
▁안다니	-13.2901
없잖아	-13.2912
▁중고	-13.2916
▁드렸으니	-13.2924
치킨	-13.2925
▁하려다	-13.2935
▁재밌었	-13.2935
▁사줬	-13.2936
▁해올거	-13.2936
경제	-13.2939
▁나갈테니	-13.2946
▁하고있는	-13.295
▁드리겠	-13.2958
다니는데	-13.2958
▁만들어줄수	-13.2963
특별	-13.2964
▁해줄거	-13.2965
빌	-13.2968
▁줌	-13.2974
▁해줘야겠	-13.2987
합시다	-13.2992
anne	-13.2994
▁두셨	-13.2996
새꺄	-13.2997
▁궁금해하	-13.301
버릴거니까	-13.301
주십시요	-13.3014
마니	-13.3015
그날	-13.3023
▁잃으	-13.3028
▁뿐이라	-13.3032
▁해줍니	-13.3033
▁가래	-13.304
튀기	-13.3042
▁있는거라	-13.3047
▁많을거	-13.3048
▁나였	-13.3052
갔다와	-13.3059
보는거	-13.3063
▁량	-13.3069
샤	-13.3082
있을거	-13.3085
알겠어	-13.3096
나는	-13.3099
할수	-13.3109
▁바꾸는	-13.3111
▁곤	-13.3114
▁노는거	-13.3127
놓고서	-13.3128
하던가	-13.3137
엄	-13.3142
튀	-13.3144
▁Ce	-13.3161
해와	-13.3163
▁그만하시	-13.3165
▁하는거구	-13.3168
▁해야하니	-13.3173
치우	-13.3174
▁손댔	-13.318
▁그러라	-13.3192
피부	-13.3197
▁급한거니	-13.3202
아주세요	-13.3204
보낸다는	-13.3205
▁오스	-13.3217
선생님	-13.3222
▁만듭	-13.3238
폭발	-13.3238
▁뛴	-13.3239
▁물가	-13.3246
▁맡는	-13.3253
▁나뉘	-13.3256
깄	-13.3261
할께	-13.3261
▁우니	-13.3277
드렸는데	-13.3292
▁잘나	-13.3295
▁가운	-13.3299
W	-13.3299
▁했겠어	-13.3302
꺄	-13.3305
할것	-13.3312
둘러	-13.3313
▁낸건	-13.3317
▁시켰으니	-13.3321
▁걸어다니는	-13.3322
넘어	-13.333
▁터지는	-13.3337
▁안꺼	-13.3341
썼다	-13.3341
▁듣는다	-13.3343
다녀야	-13.3349
갈지	-13.3353
돌아다니	-13.3354
▁산다고	-13.3355
▁보거	-13.336
▁뽑았을	-13.337
곱	-13.3379
뇌	-13.3381
꺼지	-13.3384
먹이	-13.3386
▁비꼬	-13.3387
벗	-13.3397
갖	-13.3398
쌀	-13.3399
쓰지	-13.3399
▁움직이는	-13.3407
라엘	-13.3412
나안	-13.3412
퀴	-13.3415
했겠다	-13.342
▁받겠지	-13.3424
봄	-13.3425
펜	-13.3425
뮤	-13.3427
▁섭하	-13.3427
희망	-13.343
엘	-13.3434
▁들었으니	-13.3434
▁가우	-13.3454
nat	-13.3455
▁들으셨	-13.3461
몽	-13.3468
▁해주는거니	-13.3475
▁Cana	-13.3477
▁부끄	-13.3478
5678	-13.3481
봅시다	-13.349
스포츠	-13.3491
빠져	-13.3492
떨	-13.3495
▁났거	-13.35
니가	-13.3502
있었잖아	-13.3502
hic	-13.3516
▁헤어	-13.3546
있다	-13.3548
준거라	-13.3549
쉬어야	-13.3553
굽	-13.3555
땀	-13.3556
짬	-13.3556
호흡	-13.3567
여름	-13.3572
▁올린거	-13.3573
워주	-13.3575
있는지	-13.3576
갈아	-13.3577
▁욱	-13.3578
▁때워	-13.358
프라이	-13.3591
▁찝찝	-13.3592
▁씻는	-13.3595
▁마네	-13.3598
할테니	-13.3603
엿	-13.3605
ani	-13.3608
▁끄라	-13.3609
앉	-13.3612
▁키운	-13.3614
먹어야	-13.3616
뜰	-13.3621
in	-13.3631
권리	-13.3635
sine	-13.3643
▁들고가	-13.365
▁순진했	-13.3663
뉘	-13.3666
봤으면	-13.3666
xa	-13.367
▁서있을	-13.3673
뒤뚱	-13.3673
201	-13.3679
샤오	-13.368
▁찾았으	-13.3682
345	-13.3683
벙	-13.3683
▁무뚝뚝	-13.3687
마시는	-13.3689
▁손대	-13.3695
있겠습니다	-13.3704
▁벌기	-13.3706
봤을	-13.3709
▁떨어지지	-13.3724
잤	-13.3724
▁빡치니	-13.3729
계시는데	-13.3733
돌아서	-13.3733
띠	-13.3738
붙는	-13.3742
낀	-13.3746
뚜벅	-13.3749
뚱땅	-13.3749
▁이재	-13.3753
▁떨어지는거	-13.3759
▁볼테	-13.376
샌	-13.3761
▁뜯어가	-13.3764
따끔	-13.3766
▁달았는	-13.3767
학습	-13.3767
▁알아봤	-13.3768
리냐	-13.3769
▁신고있는	-13.3781
하원	-13.3783
려줄	-13.3783
모닝	-13.3795
번쩍	-13.3798
꼽	-13.38
뱃	-13.38
▁써줄	-13.3805
▁일있어	-13.3806
설렁	-13.3809
키득	-13.3809
있었던	-13.381
▁찾아오는	-13.381
▁com	-13.3812
리네	-13.3815
출렁	-13.3816
없으면	-13.3818
쳤다고	-13.3821
있을테니	-13.3826
▁모르셨	-13.3828
반짝	-13.3829
쪼	-13.3829
썻	-13.3832
즉	-13.3832
약성	-13.3838
포르	-13.3843
덤	-13.3848
넓	-13.3853
두셨다	-13.3856
똘	-13.3857
띨	-13.3857
묘	-13.3857
잭	-13.3857
켁	-13.3857
갓	-13.3857
쳐지는	-13.3859
▁되어있는	-13.3863
갱	-13.3866
셰	-13.3866
왓	-13.3866
줫	-13.3866
윈	-13.3866
캄	-13.3866
조선	-13.3869
흉	-13.387
▁잔잔	-13.387
맞네	-13.3875
려주라	-13.3881
겸	-13.3884
▁질러야	-13.3884
arc	-13.3887
▁헤어져야	-13.3888
혔어	-13.3889
고싶다	-13.3891
▁갔으	-13.3892
▁Wh	-13.3898
▁받을테니	-13.3898
▁그러도	-13.3899
▁오던	-13.3899
거냐고	-13.3908
망친다	-13.3911
▁무겁다는	-13.3913
붓	-13.3916
부탁	-13.3924
the	-13.3924
건방지	-13.3927
한대	-13.3933
세포	-13.3933
보잖아	-13.3948
▁시킬거	-13.3948
▁않을테니	-13.3971
꼬질	-13.3976
잡아서	-13.3982
으시겠다	-13.3999
▁들어갔는	-13.4
준다는	-13.4004
부른	-13.4016
식사	-13.4017
돋	-13.4034
성취	-13.4035
▁비리	-13.4036
일으켰	-13.4039
▁까지라	-13.4043
줬었잖아	-13.4045
강민	-13.4048
치는거	-13.4051
겼	-13.4059
Pa	-13.4064
▁갖고있	-13.4073
▁하겠으니	-13.4075
▁짜다	-13.4075
▁알고싶어	-13.4076
▁생방	-13.4083
오케	-13.4092
▁잃을거	-13.4094
버리겠어	-13.4098
기획	-13.4109
▁준다니	-13.4111
퍽퍽	-13.4113
187	-13.412
증명	-13.4121
▁터지겠	-13.4124
▁뚱뚱	-13.4126
잡았	-13.413
om	-13.4137
우적	-13.4143
Ne	-13.4149
타는	-13.4152
했던거	-13.4161
▁가시는거	-13.4164
▁오가	-13.4172
▁쓰겠	-13.4188
그려	-13.419
gen	-13.4194
▁찾았다	-13.4194
다행	-13.4196
아먹냐	-13.4205
멋	-13.4216
만져	-13.4216
▁미안해서	-13.4229
▁벗기	-13.4239
▁떵떵	-13.4248
문화	-13.4249
리잖아	-13.4252
마르	-13.4256
emb	-13.4269
▁달라졌	-13.4303
▁36	-13.4321
따르는	-13.4331
▁나을거	-13.4342
▁서라	-13.4361
▁eve	-13.4362
▁살립니	-13.4373
그만	-13.4375
리라	-13.4376
▁해내	-13.4381
▁죽자는	-13.4381
▁촉박	-13.4384
▁없거	-13.4396
프리	-13.4399
했다는거	-13.44
▁뽑는거	-13.4402
싸이	-13.441
▁똑같지	-13.4413
어놨어	-13.4419
▁wo	-13.442
▁들려주	-13.4426
un	-13.4429
▁무안하	-13.4434
킨것	-13.4449
키지	-13.445
800	-13.4457
얘기	-13.4465
하다가	-13.4466
하다는말	-13.4468
▁오시는	-13.4471
▁알아주	-13.4471
go	-13.4471
▁No	-13.4482
▁되겠습니	-13.4486
▁골랐	-13.449
▁안아주	-13.4493
버리	-13.4495
스포	-13.45
▁적혀있	-13.4504
붙으려	-13.4506
지말아주	-13.4506
▁쓰고있	-13.451
▁가져가시	-13.4513
▁넘어가주	-13.4516
▁했구	-13.4524
▁올테니	-13.4531
▁날씬	-13.4531
▁할거라	-13.4549
꾸지	-13.4552
뭔	-13.4576
▁어눌	-13.4577
▁많더	-13.4583
▁입는거	-13.4596
ta	-13.4599
to	-13.4608
말던가	-13.4609
▁쏟	-13.461
▁좋아하는지	-13.4613
구리	-13.4618
▁써줘	-13.4624
거여	-13.4624
▁가셨어	-13.4625
▁꺾	-13.463
▁놀지	-13.4633
gu	-13.4638
▁당하는	-13.4654
▁템	-13.4656
시시	-13.4658
기념	-13.4671
▁두지	-13.4679
▁봤네	-13.4682
mon	-13.4685
세워	-13.4687
▁올바	-13.4693
▁하던대	-13.4701
▁빻	-13.4704
시거	-13.4706
시겠습니까	-13.4712
놀지	-13.4714
▁징징거	-13.4724
lan	-13.4725
소연	-13.4726
▁설레	-13.4732
▁깍이	-13.4733
aw	-13.4735
계시네	-13.4737
글라	-13.4741
정도	-13.4745
▁있는거잖	-13.476
▁쪽팔리니	-13.4762
▁쓰고싶	-13.4772
이건	-13.4772
▁봤잖	-13.478
▁뒤지는	-13.4781
arl	-13.4787
안에	-13.4794
가야하니	-13.4797
뫄	-13.4798
뤄	-13.48
같아	-13.48
▁찌그러	-13.4801
셨구	-13.4802
pic	-13.4807
▁부담스러워	-13.4808
▁갇	-13.481
볼께요	-13.481
▁빠져야	-13.4811
혔	-13.4813
▁지저분	-13.4814
게하지	-13.4815
릿한	-13.4816
▁왔잖	-13.4817
계셨	-13.4817
san	-13.4818
닙니	-13.4819
▁감사합니	-13.4821
겟습니	-13.4823
▁촌스러	-13.4825
um	-13.4825
▁멍청해가지	-13.4826
끄럽	-13.4826
▁가야겠	-13.4826
있을지	-13.4826
lt	-13.4828
▁않은건	-13.483
▁알잖	-13.483
▁해볼께	-13.4834
ak	-13.4836
▁본다는	-13.4836
찮	-13.4837
렵	-13.4839
과장	-13.484
789	-13.484
닙니다	-13.484
빴	-13.4843
떤	-13.4846
▁당할거	-13.4846
▁없으려니	-13.4847
▁쫓	-13.4848
▁받았으니	-13.4849
▁어땠	-13.485
unt	-13.4852
때마	-13.4852
았었	-13.4852
눕	-13.4854
ranslat	-13.4855
que	-13.4855
round	-13.4855
쾅	-13.4856
▁speci	-13.4856
괘	-13.4856
씸하	-13.4856
▁넉	-13.4856
▁찍는거	-13.4856
혔으	-13.4857
랬잖	-13.4857
ob	-13.4857
uce	-13.4857
nder	-13.4857
ua	-13.4858
av	-13.4858
lac	-13.4858
tat	-13.4859
▁Gro	-13.4859
up	-13.4859
▁제삿	-13.486
▁cu	-13.486
겼던	-13.4861
ka	-13.4861
hr	-13.4862
지말아줘	-13.4863
써서	-13.4863
죄죄죄	-13.4863
방학	-13.4863
per	-13.4864
uni	-13.4864
▁Ch	-13.4865
ue	-13.4868
▁잊혀진	-13.487
late	-13.487
▁Co	-13.4871
▁봐주십	-13.4871
cke	-13.4871
▁그런거잖	-13.4872
tle	-13.4872
88	-13.4873
ik	-13.4874
let	-13.4876
▁부를테니	-13.4877
▁기대할	-13.4879
ven	-13.4882
놨습니	-13.4883
해줄	-13.4883
str	-13.4883
73	-13.4887
ern	-13.4895
yth	-13.4895
가졌으니	-13.4895
싶은가	-13.4895
ist	-13.4896
▁있잖	-13.4899
유산	-13.4904
쌍하	-13.4908
▁Bl	-13.4922
느냐	-13.4925
▁왜그	-13.4927
▁참을만	-13.4928
▁버릴거니	-13.4929
▁나셨	-13.493
tm	-13.4931
tho	-13.4932
▁비키세	-13.4932
mm	-13.4932
아먹는	-13.4932
▁서있	-13.4938
▁싶은건	-13.4941
리얼	-13.4945
▁하느	-13.4946
▁무너	-13.4948
▁괴롭혀줄	-13.4953
보시	-13.4955
▁프린	-13.4962
았더	-13.4965
이는구	-13.4969
어주는	-13.4969
▁빠져가지	-13.4975
▁꺼지라	-13.4975
지났어	-13.4978
▁죽기전	-13.4982
▁살게	-13.4986
▁쳐줘	-13.4989
hing	-13.4989
de	-13.4989
▁프랑	-13.4992
▁잠들	-13.4994
죄죄	-13.4995
놨어야	-13.4999
▁이었으	-13.5
가시게	-13.5001
To	-13.5004
▁26	-13.501
냈으니	-13.5013
▁빼는거	-13.5026
ref	-13.503
he	-13.5034
당당하	-13.5037
였으니	-13.504
▁메야	-13.5047
켜놓	-13.5048
하구	-13.5049
▁순수해	-13.505
▁250	-13.5052
붙었	-13.5054
▁김길	-13.5058
상급	-13.5059
었을거야	-13.506
▁같다니	-13.5062
주시는	-13.5064
▁때렸다	-13.5065
▁신는	-13.507
▁잔다	-13.5082
르르	-13.5083
assi	-13.5083
상하다	-13.5091
▁앉지	-13.5093
를테니	-13.5094
는거고	-13.5097
던것	-13.5106
▁믿겠다	-13.5106
▁만나겠다	-13.5106
어디	-13.5107
▁까발	-13.5112
섭하네	-13.5119
▁다니세	-13.5125
▁작으	-13.5126
어질	-13.5138
▁만나자는	-13.5159
228	-13.5162
▁구려	-13.5183
▁가능합니	-13.5183
▁있더	-13.5187
▁있어가지	-13.5189
▁In	-13.5189
▁32	-13.5191
▁쓰레	-13.5194
겼으니	-13.5198
ssa	-13.52
▁실망하	-13.521
꾸는	-13.5213
▁막아주	-13.5216
리는건	-13.5217
▁알앗	-13.5217
비린	-13.5222
▁옮겨주	-13.5226
▁앉아있	-13.523
영리	-13.524
주셨나	-13.5252
▁자른	-13.5261
▁맞구	-13.5278
어오	-13.528
프고	-13.5281
▁고통스러	-13.5286
▁하잖	-13.5291
려워	-13.5299
▁믿는거	-13.5309
▁마셨어	-13.5314
일러	-13.5321
한다니	-13.5322
▁뒤따	-13.5327
▁뛰는	-13.5331
▁정정	-13.5332
춘거	-13.5346
로우	-13.5348
▁없더	-13.5351
▁자겠지	-13.5352
din	-13.5354
사용	-13.5358
▁꼴리	-13.537
되세요	-13.537
▁만나주	-13.5371
으시던	-13.5371
정신	-13.5383
▁거슬리는	-13.5386
킨거	-13.539
죽이고	-13.5394
▁나올것	-13.5395
죄송해요	-13.5414
네스	-13.5426
▁갑갑	-13.5427
오셔야	-13.543
실꺼	-13.5437
받아야	-13.5454
▁베트	-13.5455
▁같더	-13.5462
▁까부	-13.5469
려요	-13.5475
마실	-13.5492
▁Am	-13.5494
을께	-13.5495
낼테니	-13.55
▁이러세	-13.5502
▁갚기	-13.5513
▁모은거	-13.5533
디스	-13.5538
▁적었	-13.5539
▁빼주	-13.5542
렸는	-13.5544
버리고	-13.5551
▁뒤집	-13.5555
힐거	-13.5562
▁무심	-13.5583
▁사가지고	-13.5585
그만해	-13.5588
▁집어치	-13.559
칠하네	-13.5608
놓을테니	-13.5611
▁Th	-13.5619
워진	-13.5635
▁기어오	-13.5664
를테니까	-13.5669
▁다치겠	-13.5672
▁어겼	-13.5676
▁기다려줄	-13.5678
▁곤란한	-13.5683
▁대드는거	-13.5698
치셨	-13.5699
어졌으	-13.5702
대요	-13.5705
루어졌	-13.5706
지시	-13.5717
▁치사하	-13.5727
쳤습니다	-13.5737
▁신거	-13.5738
먹으라고	-13.5742
▁화나기	-13.5744
▁지어졌	-13.5746
▁믿어주	-13.5783
살려주세요	-13.581
야겠	-13.5813
려놓을게	-13.5814
66	-13.5822
▁먹는건	-13.5826
▁힘들잖아	-13.5837
▁고친	-13.5838
▁꼬셨	-13.5842
▁치우라	-13.5843
힌다	-13.5843
걸리	-13.5844
가지고와	-13.5847
아놨어	-13.5876
있으면서	-13.5879
▁그렇습니	-13.5881
▁po	-13.5891
돌리지	-13.5894
cas	-13.5922
▁어울리니	-13.5936
▁바꾸라	-13.5947
린건	-13.5949
▁ex	-13.5954
▁변하	-13.5972
워질	-13.598
생기	-13.5996
▁없어가지	-13.6002
▁comm	-13.6008
끄러	-13.6011
살아라	-13.6012
▁드리는거	-13.6013
85	-13.6014
곤한	-13.6017
키도	-13.6025
▁적잖	-13.6029
럽다	-13.6037
▁궁금했	-13.6044
라올수	-13.6044
▁였는데	-13.605
28	-13.6051
발자	-13.6061
▁대잖	-13.6064
하지말라고	-13.6066
나가야	-13.6067
▁잼	-13.6075
아는데	-13.6078
던건데	-13.6083
▁갖지	-13.609
▁화난	-13.6099
아름	-13.61
▁주시는거	-13.6106
▁가신	-13.6115
▁좋아하거	-13.6117
▁올리는거	-13.6126
▁갔잖	-13.6137
▁칠하	-13.6142
▁풀어주라	-13.6142
▁자유로	-13.6143
아내는	-13.6164
덕거	-13.6171
여자	-13.6188
▁힘들었는	-13.6191
▁입으시	-13.6202
▁굽	-13.6214
계신	-13.6218
아마	-13.6222
▁물어보지	-13.6266
▁두던	-13.6275
▁올수	-13.6281
▁거슬	-13.6283
▁가져갔다	-13.6286
▁신다는	-13.6303
▁대지	-13.6303
▁먹으니	-13.6345
▁울리	-13.6347
시게	-13.6352
▁둬주	-13.6359
드릴	-13.6365
▁나셔	-13.6366
nter	-13.6374
셨잖	-13.6383
▁꼬질	-13.6391
놓았	-13.6418
▁내버릴	-13.6426
▁추하	-13.6442
▁뮤	-13.6444
▁이른	-13.6456
려주실	-13.6459
겨나	-13.6471
테이	-13.6491
▁느끼셨	-13.6499
치시네	-13.6503
▁오더	-13.6506
보는것	-13.6529
셨으	-13.654
못구	-13.6541
가자는	-13.6548
남았는데	-13.6575
끄러운	-13.6579
▁늙으	-13.6581
▁치워주	-13.6585
▁불러야겠	-13.6601
pin	-13.6619
세미	-13.6621
▁그랬어야	-13.6631
▁재미없는	-13.6633
▁좋을건	-13.6646
놓을거	-13.6685
▁지었어	-13.6686
서에	-13.6708
올게요	-13.6717
고객	-13.6733
▁살아왔	-13.6733
▁필요하니	-13.6738
했으	-13.6741
▁시급	-13.6744
▁물으	-13.6753
던대	-13.6766
▁기다렸는	-13.6796
주려	-13.6817
가셔야	-13.684
▁됐으	-13.6847
주게	-13.6855
마세요	-13.6871
▁난다는	-13.6871
▁고비	-13.6873
좋아져서	-13.6876
될거니까	-13.6887
하시는데	-13.6911
쳤는	-13.6913
▁정신차	-13.692
▁보이는거	-13.6927
▁산데	-13.6929
보냐	-13.6931
▁ai	-13.6934
아들	-13.6936
▁본건	-13.6945
사직	-13.6949
▁중요한거	-13.6963
경찰	-13.6975
려놔	-13.6979
04	-13.6986
▁싶다니	-13.6991
왔는지	-13.7005
▁살아나	-13.7011
▁난거	-13.7028
보였습니다	-13.7034
셨던	-13.7045
▁해보라	-13.7056
였나	-13.706
▁살릴	-13.7075
▁넣기	-13.7077
나가	-13.7093
▁때리니	-13.7122
▁끊으	-13.7124
지른	-13.7142
▁만지는	-13.7148
낸것	-13.7148
연합	-13.716
플까	-13.7199
▁알까	-13.7213
▁받으니	-13.7218
거아니에요	-13.7227
싶으	-13.7254
▁헤어진다	-13.7261
보구	-13.7271
러스	-13.7276
▁저질	-13.7297
가는건	-13.7313
자꾸	-13.7322
▁들하	-13.7322
▁ac	-13.7327
으시겠	-13.7343
rou	-13.7361
▁봐주십시	-13.7361
인다는	-13.7362
▁불편하거	-13.7366
리겠다고	-13.7369
▁이슬	-13.7376
나갔	-13.7399
남이	-13.7417
▁목도	-13.7419
▁원망하	-13.7419
▁너무나	-13.7424
었잖아요	-13.7429
pla	-13.7435
▁사주려	-13.7447
전자	-13.745
▁될거아	-13.7451
힌거	-13.7473
▁기프	-13.7494
하시네	-13.7496
▁떠보	-13.7508
러더	-13.7513
막혀	-13.7523
울리네	-13.7533
려야하나	-13.7537
없고	-13.7538
▁기죽	-13.7549
▁다친	-13.7577
▁좋으면	-13.7584
업무	-13.7591
▁가져오는	-13.7619
▁늦지말	-13.7632
▁타기	-13.7636
▁왜그러	-13.7644
기름	-13.7652
▁같이	-13.768
리라고	-13.7699
켜야	-13.77
오게나	-13.7706
bet	-13.7707
▁튀어나	-13.7749
하면서	-13.7817
▁그랬는	-13.7891
야야야	-13.7901
▁봐주겠	-13.791
▁기울	-13.7915
▁포스	-13.7949
럽지	-13.795
보이는	-13.7966
능한	-13.797
▁싫어하겠	-13.8014
▁사는건	-13.8018
다는건	-13.8023
신다는	-13.8045
준비	-13.8047
시들	-13.8054
봅	-13.8062
▁보는건	-13.8066
갈리	-13.8086
려져	-13.8091
가해	-13.8093
고다니네	-13.8117
해오	-13.8122
▁됐다니	-13.8144
나겠다	-13.8167
▁가란	-13.8175
느라고	-13.8177
▁쳐다	-13.8178
가진	-13.8199
hes	-13.8228
추지	-13.8228
손님	-13.8255
▁하셨는	-13.8258
▁그만하라	-13.8263
13	-13.8264
대가	-13.8297
▁출이	-13.8297
▁당하시	-13.8326
르치	-13.8351
죽지	-13.8359
하였다	-13.8369
다음	-13.8375
▁bea	-13.8379
와줘	-13.8386
▁놀거	-13.8402
▁일어	-13.8412
▁네스	-13.8418
▁나더	-13.8423
▁파이	-13.8438
▁딱딱하	-13.8441
▁뚜	-13.8442
려우	-13.8446
▁찾겠다	-13.8452
▁돌아오겠	-13.8499
이네요	-13.8499
▁걸리겠	-13.852
미안	-13.8541
eve	-13.8553
지말	-13.8558
▁끝난거	-13.856
▁틀린말이	-13.8563
▁헤어지는거	-13.8581
보내	-13.8581
▁고친거	-13.8615
▁나대는	-13.8618
하는건	-13.8626
들었을	-13.8627
진것	-13.8632
17	-13.866
가도	-13.8663
▁두세	-13.8687
▁만졌	-13.8695
▁서두	-13.8696
자글	-13.87
▁인디	-13.8706
나올	-13.8725
둔다	-13.8821
▁쉬시	-13.8827
려웠	-13.8856
▁나빠지	-13.8857
▁한건	-13.8857
▁긁는	-13.8872
버렸어요	-13.8877
되어있어	-13.8881
야하	-13.894
▁보여주시	-13.8946
있었어	-13.896
지막	-13.8985
▁담가	-13.8996
는듯	-13.8998
루어지	-13.9002
▁팅	-13.9013
일반	-13.9019
어진다	-13.9036
▁프라	-13.9058
왔더라	-13.9083
▁Thi	-13.9121
오만	-13.9133
방송	-13.914
▁부탁드	-13.9143
아니요	-13.9143
▁좀하	-13.9159
▁자빠	-13.9162
▁입을	-13.9175
nic	-13.9195
친거아	-13.9201
오빠	-13.9213
공정	-13.9238
▁보살	-13.9254
▁말못	-13.9263
▁모르겠는	-13.9264
수수	-13.9286
우면서	-13.9286
보시던가	-13.9291
▁쉬어가	-13.9308
▁비린	-13.9384
▁해왔는	-13.9388
려주셔야	-13.939
어있	-13.9393
해봐	-13.9424
오른	-13.9436
크리	-13.9473
▁되실	-13.9474
▁넘지	-13.9483
있잖아	-13.9498
죽어	-13.9513
▁남게	-13.9523
받은	-13.9536
켰어	-13.9542
▁양하	-13.9542
▁끝났다	-13.9543
▁살거	-13.9588
치겠습니다	-13.9607
스트레	-13.9637
해야하는데	-13.9684
우니	-13.9706
▁나가던	-13.9715
해주세요	-13.9745
nce	-13.9774
▁날리	-13.9779
our	-13.9807
왔으	-13.9818
▁내세	-13.9819
먹으면	-13.9914
▁넘어가려	-13.9923
려내	-13.9927
오지마	-13.9935
▁진보	-13.9957
▁서줘	-14.0042
할게	-14.0056
쳤니	-14.0069
▁일거	-14.0076
est	-14.0081
랬냐	-14.0112
주실	-14.012
려주신	-14.0135
▁가지고	-14.0135
▁마세	-14.0142
▁전해	-14.0152
사는	-14.0155
부시	-14.0199
▁당했으	-14.021
돼요	-14.0223
eaut	-14.0241
▁sta	-14.0281
사오	-14.0325
은건	-14.0356
▁덴	-14.0375
ces	-14.0384
대기	-14.0408
▁어렵습니	-14.0411
릴께요	-14.0426
심하네	-14.043
레기	-14.0449
나기	-14.0456
하신데	-14.0458
▁간다고	-14.0465
리는구	-14.0495
▁올께	-14.0501
보인	-14.0502
지인	-14.0513
▁뚱	-14.0534
▁안하	-14.0645
▁기다려주시	-14.0651
지겠	-14.0658
▁끝나기	-14.0668
정확	-14.0679
드리는	-14.0681
상실	-14.07
을테니	-14.0706
겠다면	-14.072
민하	-14.0772
▁지나치시	-14.0783
ag	-14.0809
▁도와줄라	-14.0814
으려	-14.0865
지능	-14.0878
버지	-14.0883
가거든	-14.0914
여줘	-14.0929
미지	-14.0983
▁대공	-14.0985
ide	-14.0998
으셔	-14.1003
▁먹히	-14.105
같은데	-14.1065
리겠다	-14.1066
br	-14.108
▁입으라	-14.1082
공해	-14.1097
팔려	-14.1104
받을	-14.1119
았던거	-14.1124
▁보낼거	-14.114
▁그르	-14.115
▁그을	-14.1163
실래	-14.1195
▁해놓을	-14.1225
바라	-14.1231
가다	-14.1254
듯하	-14.127
▁Fr	-14.1333
▁뚱뚱하다	-14.1352
러시	-14.136
그러	-14.1405
해야하	-14.1475
오는거	-14.1508
겼잖아	-14.1515
▁Le	-14.1526
신성	-14.156
tai	-14.1571
▁짧았	-14.1577
가운	-14.1581
war	-14.1581
대인	-14.159
▁시켜주겠	-14.1595
맞고싶	-14.1602
어가세요	-14.1608
▁않는거	-14.1616
어졌다	-14.1622
▁했다니	-14.1624
▁그럴려	-14.1625
라운	-14.1648
줬	-14.1668
▁들고다	-14.1669
▁스트	-14.1691
▁미친다	-14.1732
그걸	-14.1754
▁보려	-14.1763
른거	-14.1774
▁무서	-14.1777
na	-14.1792
▁싸이	-14.1803
ia	-14.1833
▁했어야	-14.1834
지겠다	-14.1834
혀지	-14.1837
올랐	-14.186
다듬	-14.1869
▁외웠	-14.1876
지식	-14.1898
봐주십시오	-14.1955
omp	-14.1959
▁소심	-14.2002
▁버릴지	-14.2027
▁노리	-14.2045
안나	-14.2058
▁없잖	-14.2076
이에	-14.2087
▁고르	-14.2113
드니	-14.2132
려있는	-14.2143
렸다가	-14.2171
▁해주니	-14.2183
되잖아요	-14.2183
▁는거야	-14.2221
갈께요	-14.224
할만	-14.2254
▁안다	-14.2261
있다는	-14.2283
▁은지	-14.2296
주기	-14.2307
▁모았	-14.2319
하시는거	-14.2324
연락	-14.2354
든다	-14.2354
먹고	-14.2381
▁잘안	-14.2389
하신거	-14.2392
장기	-14.2429
▁치시	-14.2439
뭐라고	-14.2445
ron	-14.2445
▁쳐주	-14.2447
친절하	-14.2466
지나	-14.2468
▁하다고	-14.2475
든거	-14.248
ug	-14.2489
싫으면	-14.2497
먹게	-14.2511
뱉지	-14.2523
치한	-14.257
▁없어질	-14.2584
보셔야	-14.2594
중요합니다	-14.2603
셔야지	-14.2614
그러세요	-14.2684
주겠어	-14.2685
▁개냐	-14.2699
해줘	-14.2701
제사	-14.2721
원봉	-14.2728
▁대드	-14.2748
따가	-14.275
되지	-14.2785
아닌데	-14.2796
갔습니다	-14.281
긴데	-14.2828
를꺼	-14.2847
감아주	-14.2874
건가	-14.2902
이코	-14.2906
▁의하	-14.291
▁하고가	-14.2921
갔잖아	-14.2937
심한	-14.2938
먹는데	-14.2972
싶은	-14.2989
는거네	-14.3018
트라	-14.3028
▁야한	-14.3061
나오지	-14.3062
▁내신	-14.3076
▁차인	-14.3096
▁뽑으	-14.31
거짓말	-14.3106
▁그니	-14.3114
빌려	-14.3117
▁해서라	-14.3135
▁참는	-14.3159
오네	-14.3194
났잖아	-14.3208
▁전화한	-14.3219
▁고약	-14.3232
▁pe	-14.3232
말안	-14.3269
기나	-14.3293
▁도와	-14.331
거부	-14.3311
▁돌기	-14.3311
etw	-14.3369
라온	-14.3381
▁부당하	-14.3432
어줄수있	-14.3499
▁지친	-14.3523
▁찌르지	-14.3549
▁안되니	-14.3555
▁줄것	-14.3574
버렸어	-14.3577
보겠네	-14.3623
▁놔야겠	-14.3657
가셨는	-14.3733
▁먹었는	-14.3734
이해	-14.374
워져	-14.3744
▁길다	-14.3746
한가	-14.3782
피니	-14.3791
것이	-14.3836
생긴거	-14.3874
▁주세	-14.3893
▁지워야	-14.3906
불고	-14.3917
사과	-14.3919
맞아	-14.394
나아	-14.3946
가만	-14.3975
▁bee	-14.4001
▁오스트	-14.4039
주시는거	-14.4051
거구	-14.4051
▁전자	-14.4116
▁했다는거	-14.4134
▁되었습니	-14.4158
▁빌려야	-14.4212
▁칙	-14.4219
▁닫겠	-14.4223
있으니	-14.4259
말라고	-14.4293
▁강하	-14.4296
소문	-14.4329
다양	-14.4333
▁듣겠	-14.434
▁돌아가겠	-14.4351
카노	-14.4387
비어	-14.4399
뤄진	-14.442
할테	-14.4427
▁해오던	-14.4433
어나	-14.4461
해졌다	-14.4476
▁취했	-14.4493
를거	-14.4557
풀어주	-14.457
올려	-14.4581
tate	-14.4587
▁찌르겠	-14.4591
▁이수	-14.4628
▁둔하	-14.4632
nshi	-14.4682
▁심하시	-14.4699
▁정확하	-14.4766
▁참겠	-14.4767
부수	-14.4832
조용히	-14.4863
같아서	-14.4866
efer	-14.4894
되어	-14.4924
이려	-14.4937
어치	-14.4958
겼네	-14.4968
▁내줄	-14.497
리시면	-14.4983
▁지으	-14.4996
오던가	-14.5004
어간	-14.5044
치지	-14.5069
상하	-14.508
▁들어오겠	-14.5131
▁내지	-14.5138
▁ma	-14.515
분하	-14.5151
려주세요	-14.5166
겼다	-14.5171
왔	-14.527
없는거	-14.5276
같아요	-14.5409
▁웃기지	-14.5411
▁이천	-14.542
▁마스	-14.5457
왔겠네	-14.5497
▁썼더	-14.5556
v	-14.5563
shi	-14.5613
켜줘	-14.5613
진지	-14.567
▁다가가	-14.5688
▁없겠	-14.573
거다	-14.5743
심하	-14.5777
▁사가	-14.5791
토피	-14.5837
도날	-14.5851
▁소나	-14.5857
되고	-14.5862
▁까다	-14.5899
상해	-14.5907
날거	-14.5908
▁안치	-14.5954
오라	-14.6009
비서	-14.6028
쳤으면	-14.6048
▁재수없으	-14.6052
▁잘살	-14.6094
중요한	-14.6104
▁화이	-14.6107
▁지나도	-14.6116
오나	-14.613
시겠네	-14.6169
아가기	-14.6298
없	-14.6311
이도	-14.6338
▁껀	-14.6379
쳤나	-14.6386
▁해오는	-14.6434
▁보내기	-14.6446
그러지	-14.6456
좋을	-14.6468
결혼	-14.6507
▁아니면	-14.6571
냈는데	-14.6583
▁그래야겠	-14.6605
▁만드시	-14.6607
▁끔	-14.6619
▁01	-14.6693
▁해있는	-14.672
▁알았는	-14.6766
를거야	-14.6774
되냐	-14.6786
▁Na	-14.6805
가나	-14.6831
▁멈춰주	-14.6852
있기	-14.6892
▁혼나야	-14.6893
▁안좋더	-14.6912
니어	-14.6935
있는건	-14.7015
▁아니라니	-14.702
데에	-14.7062
열심	-14.7066
리게	-14.7092
▁한다면	-14.7102
▁하셨습니	-14.7116
되면	-14.7132
고치	-14.7144
말다	-14.7173
긴다	-14.7286
▁갈꺼	-14.7287
났던	-14.7289
▁가에	-14.7304
지은	-14.7306
들이냐	-14.7318
마지막	-14.7549
이군	-14.7609
평등	-14.7715
▁억울하겠	-14.7733
▁상부	-14.7735
듣네	-14.774
남았어	-14.7759
▁내냐	-14.7761
▁빌려다	-14.7775
않습니다	-14.7778
▁부를거	-14.7781
보려고	-14.7809
해라	-14.7849
이팅	-14.7865
의지	-14.7939
이라면	-14.7996
똑	-14.8029
가스	-14.8064
▁앉는	-14.81
됐고	-14.8116
어줘	-14.8131
감사합니다	-14.8168
혀주	-14.8179
편한	-14.8235
준다는거	-14.8247
안다고	-14.8287
티지	-14.8291
아야겟	-14.8312
공기	-14.8319
▁간편	-14.8399
러나	-14.8418
▁신나	-14.8445
▁드리겠습니	-14.8447
섰	-14.845
삽	-14.8451
뺨	-14.8452
봣	-14.8453
맬	-14.8454
뜬	-14.8455
갔나	-14.8456
뛴	-14.8456
뚤	-14.8457
땠	-14.8458
덥	-14.8459
낯	-14.846
뀐	-14.8461
꾀	-14.8462
꺾	-14.8463
궤	-14.8464
j	-14.8465
쩨	-14.8466
왁	-14.8467
옙	-14.8468
얇	-14.8469
얄	-14.847
씸	-14.8471
쑥	-14.8472
썅	-14.8473
싯	-14.8474
숟	-14.8475
뺄	-14.8476
빻	-14.8477
붉	-14.8478
덧	-14.8479
댕	-14.848
닳	-14.8481
낡	-14.8482
깠	-14.8483
곧	-14.8484
갠	-14.8485
q	-14.8486
팰	-14.8487
쿨	-14.8488
쭤	-14.8489
짭	-14.849
젖	-14.8491
윙	-14.8492
엮	-14.8493
쌌	-14.8494
쉴	-14.8495
숴	-14.8496
빤	-14.8497
닛	-14.8498
뀔	-14.8499
깽	-14.85
곰	-14.8501
핳	-14.8502
푹	-14.8503
팍	-14.8504
틸	-14.8505
쪘	-14.8506
얹	-14.8507
쐬	-14.8508
쉰	-14.8509
뱉	-14.851
뱅	-14.8511
맺	-14.8512
롤	-14.8513
떵	-14.8514
넥	-14.8515
꽃	-14.8516
깁	-14.8517
귈	-14.8518
갇	-14.8519
J	-14.852
흰	-14.8521
쿼	-14.8522
상대	-14.8523
쵸	-14.8523
왤	-14.8524
뻗	-14.8525
뵙	-14.8526
밴	-14.8527
닿	-14.8528
탐	-14.8529
찝	-14.853
웬	-14.8531
썰	-14.8532
뻥	-14.8533
뺀	-14.8534
뷔	-14.8535
떳	-14.8536
덮	-14.8537
꼈	-14.8538
깎	-14.8539
횡	-14.854
폈	-14.8541
텍	-14.8542
쨋	-14.8543
좁	-14.8544
왼	-14.8545
쏟	-14.8546
벵	-14.8547
밟	-14.8548
낭	-14.8549
홈	-14.855
튕	-14.8551
탔	-14.8552
콱	-14.8553
왠	-14.8554
엇	-14.8555
닭	-14.8556
꽂	-14.8557
꼰	-14.8558
귓	-14.8559
콤	-14.856
엎	-14.8561
쏠	-14.8562
섹	-14.8563
삐	-14.8564
햄	-14.8565
풉	-14.8566
퍽	-14.8567
뺐	-14.8568
굼	-14.8569
쪄	-14.857
짠	-14.8571
짖	-14.8572
옳	-14.8573
쏘	-14.8574
삿	-14.8575
빚	-14.8576
껌	-14.8577
쫌	-14.8578
뵈	-14.8579
됬	-14.858
끓	-14.8581
갤	-14.8582
뭣	-14.8583
딪	-14.8584
듭	-14.8585
긁	-14.8586
컸	-14.8587
앨	-14.8588
묶	-14.8589
댔	-14.859
껍	-14.8591
홀	-14.8592
읽	-14.8593
쑤	-14.8594
넉	-14.8595
줍	-14.8596
샐	-14.8597
뚫	-14.8598
닫	-14.8599
꿇	-14.86
굶	-14.8601
겪	-14.8602
흔	-14.8603
춤	-14.8604
섞	-14.8605
뀌	-14.8606
깡	-14.8607
굳	-14.8608
흠	-14.8609
르겠다	-14.861
긍	-14.861
씹	-14.8611
얌	-14.8612
쫓	-14.8613
쫄	-14.8614
쌓	-14.8615
띄	-14.8616
뜯	-14.8617
깊	-14.8618
펴	-14.8619
웹	-14.862
쏴	-14.8621
돕	-14.8622
쩐	-14.8623
낫	-14.8624
걍	-14.8625
R	-14.8626
슷	-14.8627
늙	-14.8628
꼼	-14.8629
흡	-14.863
냅	-14.8631
릅	-14.8632
닦	-14.8633
녔	-14.8634
밑	-14.8635
긋	-14.8636
녹	-14.8637
쨌	-14.8638
짧	-14.8639
썩	-14.864
멈	-14.8641
맙	-14.8642
찢	-14.8643
옮	-14.8644
뺏	-14.8645
닮	-14.8646
훔	-14.8647
헐	-14.8648
캐	-14.8649
밝	-14.865
뒷	-14.8651
쎄	-14.8652
낳	-14.8653
▁말이	-14.8654
걷	-14.8654
묻	-14.8655
헛	-14.8656
첫	-14.8657
삶	-14.8658
젊	-14.8659
뿌	-14.866
썸	-14.8661
끊	-14.8662
싹	-14.8663
뉴	-14.8664
잃	-14.8665
씻	-14.8666
멀	-14.8667
이만	-14.8667
잊	-14.8668
썼	-14.8669
떻	-14.867
꿔	-14.8671
녁	-14.8672
껴	-14.8673
챙	-14.8674
찔	-14.8675
샀	-14.8676
즐	-14.8677
쓴	-14.8678
얻	-14.8679
쉽	-14.868
ap	-14.8681
뛰	-14.8681
챗	-14.8682
옆	-14.8683
냈	-14.8684
쌍	-14.8685
맡	-14.8686
높	-14.8687
드문	-14.8688
넣	-14.8688
뻔	-14.8689
쓸	-14.869
딨	-14.8691
늦	-14.8692
뿐	-14.8693
주신	-14.8694
뽑	-14.8694
쟤	-14.8695
델	-14.8696
특	-14.8697
쩌	-14.8698
끄	-14.8699
쁜	-14.87
넘	-14.8701
냄	-14.8702
믿	-14.8703
났	-14.8704
괜	-14.8705
럴	-14.8706
됩	-14.8707
갚	-14.8708
쁘	-14.8709
찾	-14.871
봤	-14.8711
닙	-14.8712
됐	-14.8713
씀	-14.8714
싫	-14.8715
많	-14.8716
않	-14.8717
▁알겟	-14.8718
좋	-14.8718
